<unk>	0
<s>	0
</s>	0
.	-2.55894
▁and	-3.22886
▁the	-3.29687
,	-3.30277
▁to	-3.56652
▁a	-3.65955
▁was	-3.85315
▁it	-4.44987
▁"	-4.53416
▁She	-4.56678
▁her	-4.57207
▁He	-4.59633
▁They	-4.64381
'	-4.65621
▁The	-4.81393
▁he	-4.84603
▁said	-4.85985
▁in	-4.95125
▁Lily	-4.95723
s	-4.96201
▁she	-4.96884
▁with	-4.97043
▁his	-5.0423
▁day	-5.10086
▁that	-5.11896
▁of	-5.13918
▁had	-5.22881
▁they	-5.23349
▁so	-5.24846
▁you	-5.2553
▁on	-5.27625
▁for	-5.4056
▁very	-5.47195
▁time	-5.49697
!	-5.49736
▁little	-5.5039
▁there	-5.51767
▁mom	-5.52849
▁happy	-5.53725
t	-5.54556
▁It	-5.56496
▁is	-5.59261
▁big	-5.59904
▁saw	-5.60403
▁not	-5.61828
."	-5.64953
▁One	-5.65972
▁but	-5.70908
▁play	-5.70945
▁I	-5.72092
▁Once	-5.72163
▁were	-5.7325
!"	-5.74796
▁upon	-5.84985
▁wanted	-5.85061
▁girl	-5.86422
▁him	-5.86653
▁are	-5.88374
▁them	-5.90271
▁their	-5.91546
▁up	-5.9808
▁be	-5.99295
▁have	-6.0002
▁Tom	-6.01897
▁went	-6.02501
▁Ben	-6.02859
▁go	-6.08113
▁But	-6.09838
▁friends	-6.10217
?"	-6.11795
▁can	-6.1221
▁at	-6.12286
▁Timmy	-6.1229
▁all	-6.13097
▁named	-6.20288
▁back	-6.21439
▁loved	-6.21959
▁too	-6.23848
▁	-6.24673
▁felt	-6.26026
▁smiled	-6.27469
▁could	-6.28074
▁asked	-6.28565
▁fun	-6.28887
▁like	-6.29565
▁looked	-6.302
▁around	-6.30706
▁boy	-6.34846
▁out	-6.35027
▁would	-6.40667
▁help	-6.40912
▁see	-6.42128
▁did	-6.43727
▁what	-6.43903
▁make	-6.44497
▁some	-6.44801
▁away	-6.46998
▁started	-6.4822
,"	-6.49031
▁made	-6.49403
▁ran	-6.49811
▁together	-6.50354
â	-6.5055
▁park	-6.51115
▁You	-6.51243
▁something	-6.51307
▁says	-6.51373
▁want	-6.52569
€	-6.52862
▁put	-6.55035
▁sad	-6.56984
▁new	-6.57433
▁from	-6.58308
▁do	-6.58582
▁home	-6.58961
I	-6.59616
▁when	-6.59786
▁again	-6.61179
▁Tim	-6.62377
▁found	-6.62425
▁then	-6.62648
▁bird	-6.62821
▁playing	-6.66362
▁who	-6.67583
▁other	-6.69263
▁things	-6.69679
▁liked	-6.71871
▁got	-6.72184
▁we	-6.74219
▁decided	-6.74272
▁came	-6.74405
▁friend	-6.74428
▁excited	-6.76601
▁down	-6.79795
▁man	-6.80344
▁one	-6.80687
▁scared	-6.80968
▁an	-6.83057
▁Mom	-6.8333
▁find	-6.84733
▁didn	-6.85297
▁dog	-6.85586
▁Max	-6.85799
▁Sam	-6.86432
▁always	-6.86497
▁took	-6.86792
▁get	-6.86931
▁mommy	-6.87445
▁Anna	-6.885
▁your	-6.88501
▁about	-6.88506
▁tree	-6.88661
▁toys	-6.89441
▁will	-6.9027
▁outside	-6.90283
▁good	-6.90725
▁me	-6.91841
▁When	-6.94381
▁more	-6.94734
▁as	-6.95225
▁my	-6.96096
▁thought	-6.96229
▁take	-6.9809
▁special	-6.98314
▁Her	-6.99303
▁knew	-7.00349
▁dad	-7.00401
▁old	-7.0193
▁toy	-7.0284
▁how	-7.03991
▁car	-7.05263
▁much	-7.05998
▁know	-7.07173
▁So	-7.08306
▁sorry	-7.0846
▁house	-7.09186
▁told	-7.11577
▁Jack	-7.12131
▁inside	-7.13371
▁gave	-7.13547
▁tried	-7.14121
▁ball	-7.14337
▁into	-7.14365
▁couldn	-7.1592
▁never	-7.16707
▁water	-7.17342
if	-7.17669
▁look	-7.17762
▁over	-7.18507
▁played	-7.18782
m	-7.19063
▁heard	-7.19337
▁proud	-7.19677
▁From	-7.19996
▁room	-7.2046
▁each	-7.20544
▁this	-7.20902
▁We	-7.2144
▁because	-7.21843
▁Suddenly	-7.21856
▁hugged	-7.22375
▁Then	-7.23744
▁just	-7.24533
▁His	-7.25834
▁no	-7.27209
▁Mia	-7.273
▁many	-7.27599
▁Sara	-7.28941
▁nice	-7.29074
▁box	-7.29872
▁bear	-7.30668
▁learned	-7.30706
▁better	-7.32604
▁until	-7.33226
▁And	-7.33309
▁small	-7.34417
▁best	-7.39571
▁eat	-7.4069
▁careful	-7.41529
▁sky	-7.4208
▁thanked	-7.42583
▁garden	-7.44379
▁don	-7.44638
▁even	-7.46347
▁lots	-7.46731
▁laughed	-7.46998
▁long	-7.47081
▁off	-7.47272
▁by	-7.473
▁end	-7.47497
▁love	-7.48269
▁say	-7.48858
Yes	-7.48946
▁still	-7.48952
▁come	-7.49123
▁beautiful	-7.49125
▁cat	-7.49534
▁animals	-7.51088
▁kind	-7.54051
▁safe	-7.55243
▁feel	-7.55609
▁way	-7.56404
▁As	-7.56763
▁lived	-7.56886
▁both	-7.57062
▁let	-7.57826
▁hard	-7.57855
▁family	-7.587
▁red	-7.59812
▁After	-7.59886
You	-7.60405
▁every	-7.60613
?	-7.60823
▁two	-7.60876
▁people	-7.61606
▁brave	-7.61778
▁called	-7.62424
▁hurt	-7.62458
▁flew	-7.6271
▁Lucy	-7.6275
▁sun	-7.6302
▁A	-7.63276
▁walked	-7.63284
▁loud	-7.63453
▁angry	-7.64162
▁give	-7.64356
▁soon	-7.64622
▁try	-7.64895
▁kept	-7.65516
▁share	-7.65539
▁pretty	-7.67213
▁bad	-7.6722
▁or	-7.67691
▁going	-7.69269
▁ground	-7.70024
▁shiny	-7.70045
▁opened	-7.70321
▁John	-7.72434
▁noise	-7.72713
▁run	-7.73039
▁before	-7.73063
▁should	-7.73623
It	-7.73824
▁fast	-7.74061
▁explore	-7.74683
▁hug	-7.74775
▁lot	-7.74996
▁feeling	-7.752
▁door	-7.75222
▁Every	-7.75518
▁also	-7.7554
▁picked	-7.75628
▁its	-7.76195
▁idea	-7.76245
▁while	-7.76296
▁now	-7.77149
▁next	-7.78052
Let	-7.78261
▁keep	-7.78349
▁Mommy	-7.78498
▁has	-7.79265
▁walking	-7.79595
ing	-7.79962
▁nodded	-7.80699
No	-7.81018
▁smile	-7.81125
ed	-7.81858
▁show	-7.82408
▁need	-7.8258
▁being	-7.83941
▁looking	-7.86399
What	-7.87028
▁place	-7.87077
▁stopped	-7.87254
▁food	-7.87378
▁clean	-7.8743
▁Bob	-7.87753
-	-7.88339
▁noticed	-7.8856
▁eyes	-7.89203
▁slide	-7.89799
d	-7.89997
▁forest	-7.90413
▁hands	-7.90654
▁ever	-7.90736
▁showed	-7.91026
▁great	-7.91392
▁truck	-7.91714
Thank	-7.91881
▁flowers	-7.92423
▁everyone	-7.92678
▁fish	-7.93338
▁hand	-7.93704
▁okay	-7.9483
▁where	-7.95018
That	-7.95087
▁important	-7.95362
▁Sue	-7.95614
▁listen	-7.9576
This	-7.95803
▁right	-7.96264
re	-7.96375
▁blue	-7.97139
▁bed	-7.97593
▁quickly	-7.97692
▁replied	-7.97996
▁watched	-7.98361
▁after	-7.9844
▁Spot	-7.98892
▁became	-7.99111
▁rabbit	-8.00278
▁cake	-8.00707
▁sure	-8.01051
▁high	-8.01776
▁been	-8.01907
▁work	-8.0198
▁stay	-8.02069
▁fly	-8.02174
▁walk	-8.02275
▁goodbye	-8.02972
▁face	-8.03197
▁boat	-8.04062
▁anymore	-8.04172
▁closer	-8.04262
▁Jane	-8.04548
We	-8.04601
▁different	-8.04838
▁store	-8.0538
▁voice	-8.05496
▁doll	-8.05641
▁strong	-8.05801
▁curious	-8.06666
▁Sarah	-8.06956
:	-8.07105
▁mean	-8.07296
Look	-8.08188
▁head	-8.08497
▁first	-8.09409
▁helped	-8.09593
▁Lila	-8.0963
▁fell	-8.09845
▁our	-8.09991
▁use	-8.1007
▁Everyone	-8.10222
▁warm	-8.11023
▁happened	-8.11396
▁night	-8.11481
▁three	-8.12246
Can	-8.12511
▁kitchen	-8.12727
▁grabbed	-8.13468
▁dress	-8.13608
▁story	-8.14379
▁only	-8.1462
▁wait	-8.14642
▁glad	-8.14772
▁Dad	-8.15405
▁does	-8.15501
▁realized	-8.1553
▁here	-8.15672
▁adventure	-8.15809
▁jumped	-8.16318
▁birds	-8.16467
▁us	-8.17296
▁reached	-8.17756
▁book	-8.17881
▁grass	-8.18029
▁having	-8.1865
▁That	-8.18793
▁cry	-8.1943
▁watch	-8.19457
▁sees	-8.19492
▁ate	-8.20293
▁bright	-8.20765
▁ready	-8.20967
▁yummy	-8.2103
▁through	-8.21134
▁open	-8.21512
▁bit	-8.21656
▁world	-8.21695
▁game	-8.21806
▁really	-8.22938
▁shouted	-8.23367
▁Let	-8.23666
▁began	-8.23827
▁favorite	-8.23898
▁rock	-8.23973
▁himself	-8.24258
▁tired	-8.24623
▁am	-8.24694
▁used	-8.25615
▁thing	-8.25856
▁mum	-8.26151
▁name	-8.26595
▁done	-8.26676
▁learn	-8.26739
▁than	-8.26831
▁coming	-8.26889
▁Can	-8.26927
▁making	-8.26963
▁Do	-8.27238
▁funny	-8.27261
▁kids	-8.27317
▁lady	-8.27408
▁Joe	-8.28038
▁worry	-8.28189
▁brother	-8.28282
▁seen	-8.28405
▁Sally	-8.2842
▁pond	-8.28606
▁cried	-8.29059
▁another	-8.29358
Wow	-8.29735
▁flower	-8.29806
▁why	-8.29896
▁top	-8.29914
▁care	-8.3028
▁stop	-8.30305
▁waved	-8.30365
▁near	-8.30642
▁bunny	-8.30737
▁soft	-8.3095
▁looks	-8.31052
▁catch	-8.31075
▁parents	-8.31335
▁cars	-8.31379
▁paper	-8.3194
▁Tommy	-8.3253
▁under	-8.32635
▁green	-8.32719
▁hole	-8.32766
▁surprise	-8.33204
▁lesson	-8.3327
▁Benny	-8.33273
▁yellow	-8.33943
▁behind	-8.34106
▁remembered	-8.34124
▁floor	-8.34141
▁full	-8.34463
▁worked	-8.34756
▁running	-8.34901
▁hopped	-8.34981
▁wished	-8.36171
▁trees	-8.36849
Don	-8.36891
▁touch	-8.37063
▁blocks	-8.37102
▁lost	-8.37213
▁happily	-8.37542
▁needed	-8.38356
▁doing	-8.38533
▁mouse	-8.38618
▁pick	-8.3884
▁cold	-8.38906
▁think	-8.39386
▁butterfly	-8.39706
▁picture	-8.39978
▁carefully	-8.39996
▁years	-8.40528
▁-	-8.40666
▁surprised	-8.40762
▁left	-8.40806
▁tell	-8.41608
▁enjoyed	-8.41731
▁held	-8.41833
▁finished	-8.41932
▁sat	-8.42482
▁wrong	-8.42696
▁ice	-8.43044
ll	-8.43139
▁hear	-8.43197
▁wind	-8.43574
▁followed	-8.43715
▁move	-8.43883
▁Finally	-8.43918
▁There	-8.44068
▁dark	-8.44615
▁herself	-8.44622
▁Now	-8.44661
▁close	-8.4467
▁anything	-8.45065
▁Billy	-8.45558
▁climb	-8.45921
".	-8.46033
▁hat	-8.46251
▁likes	-8.46342
▁children	-8.46451
▁cool	-8.46493
▁buy	-8.46655
▁friendly	-8.46934
TMs	-8.47458
▁wonderful	-8.48039
▁Daisy	-8.48132
▁hill	-8.48211
▁bag	-8.48581
▁arrived	-8.48683
▁sound	-8.48805
Hello	-8.48813
▁delicious	-8.49004
▁far	-8.49391
▁rain	-8.50023
▁please	-8.50084
▁grandma	-8.50259
▁own	-8.50263
▁table	-8.5028
▁colors	-8.50423
▁someone	-8.50683
▁Molly	-8.50871
▁frog	-8.51635
▁filled	-8.51777
▁gone	-8.51912
▁tall	-8.52146
▁continued	-8.52627
▁broken	-8.52724
▁able	-8.52892
e	-8.53049
▁swing	-8.53576
▁leaves	-8.53678
▁sweet	-8.54126
▁stick	-8.54244
▁else	-8.54607
▁read	-8.54623
▁ask	-8.54713
▁window	-8.55283
▁jump	-8.56143
▁lion	-8.56278
▁pink	-8.56581
▁baby	-8.5668
▁fire	-8.56925
▁mess	-8.57598
▁amazing	-8.57653
▁any	-8.58313
▁laugh	-8.58832
▁forgot	-8.58848
▁castle	-8.59119
▁getting	-8.59136
▁Maybe	-8.59156
▁understand	-8.59176
▁hot	-8.59208
▁enough	-8.59256
▁dinner	-8.59615
▁agreed	-8.59875
▁white	-8.59975
▁books	-8.60008
▁morning	-8.60026
▁yes	-8.60031
▁wants	-8.60063
▁pictures	-8.60106
▁set	-8.60326
▁mother	-8.60336
▁stayed	-8.60459
▁Amy	-8.60754
▁scary	-8.60803
▁cookies	-8.60921
▁hair	-8.61003
▁trying	-8.61274
▁finally	-8.61743
▁climbed	-8.61789
▁sometimes	-8.61804
▁fix	-8.62068
▁hungry	-8.62374
▁Jill	-8.62632
▁smiles	-8.63853
▁brought	-8.64024
▁clothes	-8.64293
▁wet	-8.64754
▁turned	-8.64861
▁talk	-8.64969
▁daddy	-8.65049
▁listened	-8.65563
▁few	-8.6597
▁strange	-8.66575
▁everything	-8.66688
▁others	-8.66863
▁light	-8.66913
▁wasn	-8.67281
▁beach	-8.67661
▁ride	-8.67707
▁air	-8.67761
▁puppy	-8.67797
▁rest	-8.68162
▁moment	-8.6873
▁What	-8.68737
▁waited	-8.68874
▁amazed	-8.69596
▁cream	-8.69733
▁tail	-8.69746
▁alone	-8.70393
▁duck	-8.71173
▁silly	-8.71313
▁thank	-8.71461
▁makes	-8.71844
▁teddy	-8.72008
▁Soon	-8.72014
▁woods	-8.72568
▁asks	-8.72959
▁leave	-8.73125
▁joy	-8.73176
▁sit	-8.73187
▁hide	-8.73542
▁draw	-8.73548
▁squirrel	-8.73837
▁lake	-8.74718
▁All	-8.75017
▁flying	-8.75703
▁might	-8.76092
▁pulled	-8.76368
▁dance	-8.76634
▁promised	-8.76852
▁towards	-8.77397
▁s	-8.78395
▁pretend	-8.7841
▁pieces	-8.78458
▁perfect	-8.78726
▁sing	-8.78847
Oh	-8.78857
uch	-8.78866
▁shared	-8.78979
▁wear	-8.79067
▁bigger	-8.79113
▁fox	-8.79361
▁won	-8.79488
▁owner	-8.79607
▁moral	-8.79676
▁sister	-8.79856
▁living	-8.80622
▁thinks	-8.80663
Maybe	-8.80802
▁runs	-8.80832
▁candy	-8.81321
▁party	-8.81709
▁bike	-8.81839
▁everywhere	-8.82026
▁grateful	-8.82076
▁music	-8.82152
▁enjoy	-8.82242
But	-8.82287
▁dolls	-8.82499
▁slowly	-8.82677
▁side	-8.82749
▁deep	-8.83496
▁worried	-8.83579
▁faster	-8.83852
▁magical	-8.84111
▁broke	-8.84164
Okay	-8.84226
▁money	-8.84234
▁reach	-8.84302
▁sleep	-8.84381
▁job	-8.84382
▁join	-8.84547
▁In	-8.84783
▁sand	-8.8482
▁Mama	-8.84837
▁bug	-8.84922
▁colorful	-8.85026
▁visit	-8.85163
▁race	-8.8521
▁hold	-8.85716
▁cut	-8.85931
▁helping	-8.86097
▁met	-8.86559
▁crying	-8.86977
▁most	-8.8805
▁dangerous	-8.88804
▁train	-8.88825
▁stepped	-8.89079
▁farmer	-8.8922
ly	-8.89451
▁monster	-8.90044
ever	-8.90341
▁remember	-8.90384
▁heavy	-8.90467
▁Jimmy	-8.9054
Sure	-8.90756
▁princess	-8.90817
▁smart	-8.90952
▁river	-8.9181
▁twins	-8.91912
▁Daddy	-8.9203
▁words	-8.92174
▁dragon	-8.92312
▁mouth	-8.92313
▁spot	-8.92385
▁field	-8.92529
▁tower	-8.92602
▁Emma	-8.92802
▁across	-8.92806
▁dirty	-8.92806
Mom	-8.92887
▁stuck	-8.93016
▁same	-8.93016
▁eating	-8.93132
▁closed	-8.93148
▁song	-8.93212
▁threw	-8.93375
▁doctor	-8.93467
▁wouldn	-8.93644
▁swim	-8.94047
▁Fluffy	-8.94103
▁Just	-8.9417
OK	-8.94187
▁tight	-8.94381
▁bowl	-8.94635
▁balloon	-8.95225
▁blanket	-8.95446
▁bite	-8.95515
▁pushed	-8.96691
▁Mary	-8.96817
▁treasure	-8.972
ir	-8.97298
Hi	-8.9766
▁turn	-8.97913
▁hoped	-8.98133
Mommy	-8.98344
▁without	-8.98377
▁believe	-8.98435
▁wall	-8.98452
▁hit	-8.98711
▁feels	-8.98807
▁clapped	-8.99
▁Mum	-8.99226
▁town	-8.99228
▁Grandma	-8.99312
▁fence	-8.99764
▁school	-8.99764
▁fairy	-9.00154
▁cheered	-9.00543
▁start	-9.00854
▁yard	-9.01388
▁break	-9.01506
▁quiet	-9.01527
▁brown	-9.01701
Why	-9.01735
▁drove	-9.01779
▁higher	-9.02103
▁lonely	-9.02171
▁today	-9.02407
TMt	-9.02629
▁paint	-9.02902
▁upset	-9.03039
▁chase	-9.03277
▁black	-9.03357
▁adventures	-9.03558
▁longer	-9.03694
▁teacher	-9.03846
▁welcome	-9.03959
▁gentle	-9.03995
▁turns	-9.04097
▁child	-9.04396
▁wings	-9.04429
▁course	-9.04476
▁explained	-9.04564
▁noises	-9.04591
▁swings	-9.04667
▁suddenly	-9.04883
▁Inside	-9.05284
▁bring	-9.05805
▁games	-9.06004
▁soup	-9.06678
▁must	-9.06836
▁piece	-9.06964
▁animal	-9.07211
▁dropped	-9.07249
▁sign	-9.07874
▁swam	-9.08161
▁stories	-9.08246
▁On	-9.08298
▁backyard	-9.08413
▁sang	-9.08413
▁build	-9.08618
▁forget	-9.08624
▁Later	-9.08664
▁late	-9.08746
▁wish	-9.08833
▁pet	-9.08969
▁apple	-9.09059
▁well	-9.09569
▁fight	-9.09635
▁orange	-9.09653
▁owl	-9.0993
▁hugs	-9.10165
▁naughty	-9.10185
▁taking	-9.10355
▁dry	-9.10481
▁pocket	-9.10509
▁rocks	-9.10562
▁jar	-9.10677
▁magic	-9.10858
▁exploring	-9.1147
▁along	-9.1241
▁seemed	-9.12609
▁singing	-9.12917
▁wise	-9.1293
▁shook	-9.13123
▁caught	-9.13298
▁moved	-9.13373
▁woke	-9.13386
▁nearby	-9.13387
▁lunch	-9.13561
▁young	-9.13596
▁shoes	-9.13937
▁though	-9.14251
▁Sammy	-9.14361
▁tiny	-9.14536
▁stars	-9.14853
▁sea	-9.15167
▁secret	-9.15446
▁elephant	-9.15718
▁monkey	-9.16447
▁bench	-9.16509
▁snow	-9.16823
Lily	-9.17046
▁heart	-9.17154
▁nap	-9.17358
▁bucket	-9.17362
▁kite	-9.17545
▁shapes	-9.17579
▁chair	-9.18104
▁branch	-9.18155
▁mine	-9.18251
▁star	-9.18347
▁arms	-9.18516
▁juice	-9.18528
▁busy	-9.18625
▁sick	-9.18799
▁dream	-9.18839
▁bee	-9.18943
▁afraid	-9.19465
▁wondered	-9.19753
▁mad	-9.20095
▁real	-9.20099
▁nest	-9.20254
▁sitting	-9.20311
▁nose	-9.20759
▁year	-9.21076
▁accidentally	-9.21247
▁round	-9.21354
▁drink	-9.22037
▁daughter	-9.22107
▁gift	-9.22232
▁forever	-9.22437
▁driver	-9.22561
▁3	-9.22685
▁Thank	-9.22887
▁cute	-9.23183
▁basket	-9.23338
▁fall	-9.23398
▁Mr	-9.23644
▁farm	-9.23807
▁pull	-9.23877
▁street	-9.23924
▁exciting	-9.23946
▁cozy	-9.2424
▁sounds	-9.24255
▁key	-9.24324
"	-9.24343
▁relieved	-9.24928
▁nothing	-9.25027
▁hello	-9.25041
▁comes	-9.2513
▁takes	-9.25159
▁holding	-9.25484
▁laughing	-9.25602
▁huge	-9.2581
▁journey	-9.2582
▁fit	-9.26018
▁rainbow	-9.26419
The	-9.26574
▁Jen	-9.26723
▁swimming	-9.27224
▁sunshine	-9.27629
Do	-9.27701
▁purple	-9.2773
▁Come	-9.27778
▁milk	-9.27831
▁life	-9.28035
▁Jenny	-9.2814
▁later	-9.2814
▁touched	-9.28238
▁instead	-9.28341
Of	-9.2845
▁birthday	-9.28545
f	-9.28723
▁cheese	-9.28751
▁With	-9.29163
▁sunny	-9.29678
▁bottle	-9.29701
▁searched	-9.29902
▁bought	-9.29988
▁pointed	-9.29999
▁cave	-9.30195
▁anyone	-9.30205
▁onto	-9.30422
▁plane	-9.30689
▁bread	-9.30926
▁pot	-9.3149
▁lucky	-9.31664
▁tasty	-9.31873
▁ducks	-9.32203
▁watching	-9.32211
▁rope	-9.32231
▁grab	-9.32297
▁Mittens	-9.32407
▁smiling	-9.32617
▁follow	-9.3269
▁grow	-9.32829
y	-9.33163
▁promise	-9.33373
▁storm	-9.33508
▁crayons	-9.33799
▁sharp	-9.33903
▁snowman	-9.34336
▁danced	-9.34729
▁button	-9.34834
▁interesting	-9.3488
▁person	-9.35207
▁treat	-9.3546
▁talked	-9.35507
▁wide	-9.35738
▁bush	-9.35754
▁plan	-9.36066
▁honey	-9.36086
Hey	-9.36344
▁free	-9.36477
▁smelled	-9.36894
▁shop	-9.37159
▁write	-9.37161
▁hope	-9.37347
▁cup	-9.37503
▁lovely	-9.37509
▁fair	-9.37853
ve	-9.37953
▁giant	-9.37979
▁healthy	-9.38323
▁apples	-9.38463
▁shining	-9.38883
▁trouble	-9.39098
▁road	-9.39205
▁clouds	-9.39361
▁rolled	-9.39478
▁which	-9.40138
▁front	-9.40253
▁Emily	-9.406
▁fruit	-9.40709
▁spotted	-9.41294
▁pile	-9.41774
▁clever	-9.42227
▁snack	-9.42351
▁Together	-9.4258
▁tasted	-9.42614
▁couch	-9.42817
▁coat	-9.42943
▁win	-9.43232
▁arm	-9.43411
▁places	-9.43418
▁whole	-9.43895
▁lay	-9.44187
▁building	-9.44318
▁asleep	-9.44481
▁phone	-9.44602
▁Jim	-9.44645
▁patient	-9.44837
▁spent	-9.44842
▁knee	-9.4486
▁sack	-9.45085
▁Lisa	-9.45086
▁spider	-9.45228
▁coin	-9.4523
▁king	-9.45232
▁ocean	-9.45325
▁loves	-9.45614
▁goes	-9.45869
▁wearing	-9.46135
▁snake	-9.46206
▁pretended	-9.46376
▁dirt	-9.46533
▁path	-9.46698
▁screamed	-9.46807
▁Sometimes	-9.46807
▁wild	-9.47512
▁ladder	-9.47527
▁confused	-9.47775
▁appeared	-9.47781
▁problem	-9.47943
▁gently	-9.48023
▁talking	-9.48117
▁forgive	-9.48519
▁fur	-9.4877
▁furry	-9.48772
▁mud	-9.489
▁helpful	-9.48911
▁slow	-9.49257
▁spoon	-9.49455
▁answer	-9.49755
▁push	-9.49822
▁faces	-9.49893
▁color	-9.50012
▁oven	-9.50159
▁corner	-9.5022
▁Jake	-9.50287
▁picnic	-9.51373
œI	-9.51519
▁woman	-9.51565
▁wave	-9.51609
▁Peter	-9.51956
▁blew	-9.52211
▁trip	-9.52292
▁fixed	-9.5231
▁matter	-9.52375
▁finish	-9.52517
▁fighting	-9.52534
▁spicy	-9.52732
▁waiting	-9.52763
▁drive	-9.52808
▁taste	-9.52907
▁last	-9.5295
▁bow	-9.53117
▁feet	-9.53385
▁throw	-9.53427
Come	-9.5371
▁eventually	-9.53911
▁teeth	-9.53911
▁zoo	-9.53967
▁embarrassed	-9.54308
▁horse	-9.54402
▁cookie	-9.54538
▁tomorrow	-9.54705
▁call	-9.55259
▁carry	-9.5534
▁smell	-9.55385
▁Mummy	-9.55391
▁happen	-9.55529
▁cloud	-9.55602
▁chocolate	-9.55602
▁mind	-9.55624
▁Teddy	-9.55776
▁cloth	-9.56269
▁Whil	-9.56362
▁tries	-9.56583
▁tea	-9.56606
▁wash	-9.56777
▁smooth	-9.56957
▁kitten	-9.56962
▁large	-9.56987
▁calm	-9.57025
▁hiding	-9.57302
▁plant	-9.57371
▁shirt	-9.57795
▁village	-9.58083
▁songs	-9.58459
▁pool	-9.58498
▁shy	-9.58621
▁letter	-9.58627
▁empty	-9.59189
▁whistle	-9.59276
▁creative	-9.59468
Good	-9.59544
▁jungle	-9.59607
▁grew	-9.59747
▁tightly	-9.59913
▁cannot	-9.60027
▁spread	-9.60266
▁knocked	-9.60323
▁hid	-9.60526
▁rude	-9.60869
▁count	-9.61069
▁TV	-9.61154
▁bugs	-9.61234
œ	-9.61268
▁wore	-9.61723
▁puddle	-9.62024
▁necklace	-9.62161
▁barked	-9.62313
▁sail	-9.62512
▁band	-9.62582
▁Everywhere	-9.62582
▁pizza	-9.62591
▁mountain	-9.626
▁bell	-9.62687
▁sparkly	-9.62729
▁Johnny	-9.63019
▁cow	-9.63038
▁save	-9.63123
▁part	-9.63131
▁line	-9.63183
▁meet	-9.63263
▁Alice	-9.6345
▁carrot	-9.63475
▁puzzle	-9.63582
▁Please	-9.63622
▁kiss	-9.63946
▁maybe	-9.64323
▁hidden	-9.64469
▁present	-9.64502
▁land	-9.64718
▁moon	-9.64763
▁tidy	-9.65162
▁worm	-9.65392
▁forward	-9.65499
▁hears	-9.65505
▁peaceful	-9.65632
▁treats	-9.66
▁meant	-9.66071
▁carrots	-9.66215
▁prince	-9.66238
▁robot	-9.66279
Tom	-9.66803
▁machine	-9.6689
▁rocket	-9.66891
▁carried	-9.66993
▁missed	-9.67165
▁splash	-9.67502
▁card	-9.67557
▁snacks	-9.67586
▁group	-9.67745
▁string	-9.67801
▁cook	-9.67962
▁meadow	-9.68094
▁shelf	-9.682
▁ugly	-9.68505
▁How	-9.6875
▁jumping	-9.68784
▁Even	-9.68813
▁sticks	-9.68865
▁seat	-9.69017
▁teach	-9.694
▁Kitty	-9.69891
stood	-9.69993
▁selfish	-9.70041
▁gray	-9.70043
▁tells	-9.70086
▁neighbor	-9.70273
▁yelled	-9.70369
▁landed	-9.70395
▁stone	-9.70431
▁knowing	-9.705
▁Little	-9.70523
▁creature	-9.70588
▁sharing	-9.70664
My	-9.70933
▁Leo	-9.7098
▁legs	-9.71004
▁pig	-9.71211
▁plate	-9.71375
▁leaf	-9.71437
▁bath	-9.71582
▁decide	-9.71881
▁standing	-9.71959
▁Why	-9.71994
▁drew	-9.72077
▁ant	-9.72208
▁almost	-9.72235
▁Be	-9.72589
▁frustrated	-9.72711
▁fancy	-9.72711
▁stand	-9.72762
▁nods	-9.72972
▁disappointed	-9.7303
▁sleepy	-9.73211
▁e	-9.73525
▁Rex	-9.7353
▁bus	-9.73822
▁mysterious	-9.73831
▁powerful	-9.73832
▁polite	-9.7414
Stop	-9.74275
▁honest	-9.74306
▁number	-9.74385
Please	-9.74438
▁hours	-9.74536
▁remind	-9.74806
▁hospital	-9.74964
▁block	-9.75039
special	-9.75587
▁ashamed	-9.75617
▁these	-9.7589
▁breath	-9.75941
▁cries	-9.75945
▁protect	-9.76025
ting	-9.76073
▁medicine	-9.7611
▁net	-9.76439
▁returned	-9.7646
▁plants	-9.76628
▁understood	-9.76796
▁scissors	-9.77102
▁become	-9.77125
▁sour	-9.77238
▁mix	-9.77384
▁expensive	-9.77602
▁Mark	-9.77606
▁leg	-9.7774
▁packed	-9.77789
▁scarf	-9.78106
▁ring	-9.78381
▁dancing	-9.7861
▁passed	-9.78634
▁sheep	-9.78779
▁Some	-9.78783
▁sandwich	-9.78946
▁bored	-9.78948
▁shore	-9.7895
▁Don	-9.78991
▁vegetables	-9.79092
▁taught	-9.79287
▁poor	-9.79457
▁roll	-9.79514
▁garage	-9.79628
▁grumpy	-9.79798
▁saved	-9.79842
▁gate	-9.8011
▁closet	-9.80284
▁finger	-9.80299
▁mummy	-9.80313
▁ruined	-9.80323
▁hop	-9.8036
▁taken	-9.8055
▁lift	-9.80961
▁comfortable	-9.81001
▁messy	-9.81378
▁crab	-9.81689
▁Susie	-9.81872
▁Today	-9.81886
▁bedroom	-9.82044
▁easy	-9.82044
▁pain	-9.82172
▁generous	-9.82218
▁pleased	-9.82534
▁glue	-9.82707
▁asking	-9.82725
▁yourself	-9.82921
▁determined	-9.83097
▁vase	-9.83097
▁working	-9.83348
▁hopping	-9.83452
▁mistake	-9.8346
▁giggled	-9.8347
▁seek	-9.8366
▁sailed	-9.83677
▁boring	-9.83806
▁mail	-9.83945
▁wagged	-9.84162
▁kissed	-9.84389
▁feed	-9.84653
▁lock	-9.84659
▁spin	-9.84676
▁often	-9.84699
▁sighed	-9.84885
▁thankful	-9.84947
▁nervous	-9.85044
▁playground	-9.85058
▁true	-9.85238
▁minutes	-9.8532
▁brush	-9.85335
▁OK	-9.85359
▁chest	-9.85419
▁gun	-9.85621
▁answered	-9.85657
▁fake	-9.85962
▁butter	-9.85965
▁gathered	-9.85978
▁No	-9.86201
▁days	-9.86422
aid	-9.86504
▁test	-9.8661
▁tears	-9.86663
▁roar	-9.86822
▁middle	-9.86875
▁waves	-9.86952
▁excitement	-9.87611
▁ship	-9.87825
▁change	-9.87976
▁Go	-9.88057
▁questions	-9.8822
▁drawing	-9.88526
▁fridge	-9.88538
▁skipped	-9.88539
▁eggs	-9.88673
▁smelly	-9.88737
▁police	-9.88911
▁wrote	-9.88912
▁lit	-9.88912
▁bridge	-9.89337
▁discovered	-9.8968
▁board	-9.8971
Sorry	-9.89845
▁weak	-9.89866
▁wheel	-9.90099
Ben	-9.90229
▁bathroom	-9.9023
▁queen	-9.90279
▁match	-9.90338
▁sweetie	-9.90673
▁content	-9.908
▁knife	-9.908
▁Ella	-9.90802
▁fruits	-9.90809
▁shell	-9.90838
▁wolf	-9.90991
▁fluffy	-9.90991
▁lazy	-9.90992
▁drum	-9.91052
▁covered	-9.91218
▁pay	-9.91333
▁distance	-9.91374
▁respect	-9.91525
Where	-9.91557
▁famous	-9.91566
▁mighty	-9.91594
▁tape	-9.91595
▁bake	-9.91717
▁drank	-9.91951
▁towel	-9.92021
▁nod	-9.92163
▁disappeared	-9.92353
▁bone	-9.92412
▁wood	-9.92413
▁deer	-9.92531
▁lying	-9.92531
▁Eventually	-9.92725
Are	-9.92746
▁tag	-9.9292
▁unusual	-9.9292
▁zoom	-9.93021
▁eager	-9.93101
▁map	-9.93115
▁calling	-9.93175
▁lose	-9.93578
▁moving	-9.93702
▁quit	-9.9373
▁elderly	-9.939
▁Mrs	-9.93932
▁fill	-9.94212
▁balls	-9.94701
▁eye	-9.94817
▁cage	-9.95169
▁picks	-9.95233
▁splashed	-9.95337
▁stones	-9.95383
▁cleaned	-9.95405
▁End	-9.95684
▁live	-9.95937
▁banana	-9.95988
▁team	-9.96087
▁caterpillar	-9.96174
Who	-9.96486
▁mirror	-9.96488
▁shows	-9.96573
▁pillow	-9.96596
▁check	-9.96604
▁offered	-9.96711
▁egg	-9.96949
▁feathers	-9.96994
▁clown	-9.97
▁Pete	-9.97084
▁kindness	-9.97114
▁tent	-9.97195
▁juicy	-9.97299
▁father	-9.97299
▁jealous	-9.97502
▁branches	-9.97711
▁Tweety	-9.97712
▁walks	-9.97732
▁ones	-9.97764
▁tie	-9.97986
▁balance	-9.98078
▁bottom	-9.98116
▁organized	-9.98137
▁brilliant	-9.98321
▁lamp	-9.98321
▁body	-9.98375
▁coins	-9.98482
▁tough	-9.98527
▁rare	-9.98528
▁crawled	-9.98962
▁Fred	-9.99149
▁crown	-9.99271
▁colourful	-9.99562
▁breakfast	-9.99771
▁impressed	-9.99772
▁joke	-9.99868
▁neck	-9.99895
▁tiger	-9.99903
▁foot	-9.99979
▁rough	-9.99979
▁fine	-10.0001
▁bubbles	-10.0014
▁glass	-10.0019
▁thin	-10.0019
▁incredible	-10.004
▁once	-10.0055
▁pie	-10.0056
▁sugar	-10.0061
▁clear	-10.0072
▁smoke	-10.0082
▁wagon	-10.0103
▁Bella	-10.0103
▁boxes	-10.0106
▁soap	-10.0106
▁happening	-10.0152
▁measure	-10.0163
▁flute	-10.0167
▁managed	-10.0168
▁bitter	-10.0188
▁realised	-10.0188
Help	-10.0189
▁dig	-10.0221
▁trust	-10.0222
▁adventurous	-10.023
▁favourite	-10.023
▁trunk	-10.023
▁paw	-10.0246
▁wrapped	-10.0252
TM	-10.0258
▁noisy	-10.0273
▁gets	-10.028
▁added	-10.0298
▁thick	-10.0316
▁dizzy	-10.0316
▁choose	-10.0338
▁ok	-10.0339
▁foolish	-10.036
▁market	-10.036
▁mixed	-10.0365
▁knight	-10.0376
▁word	-10.0399
▁jam	-10.0425
▁circles	-10.0428
▁falls	-10.0429
▁safely	-10.0441
▁wand	-10.0446
▁louder	-10.0451
▁Bobo	-10.047
▁lifted	-10.0474
▁cheerful	-10.0489
Now	-10.0493
▁dependable	-10.0513
▁belong	-10.0531
▁grandpa	-10.0535
▁pointing	-10.0537
▁step	-10.0553
▁berries	-10.0557
▁dreamed	-10.0566
▁borrow	-10.0575
▁against	-10.0587
▁ears	-10.0597
▁movie	-10.0597
▁giving	-10.0601
▁edge	-10.0642
▁dinosaur	-10.0642
▁dogs	-10.0653
▁trucks	-10.0664
▁circle	-10.0665
▁search	-10.0682
▁hurts	-10.0688
▁Mandy	-10.069
▁belonged	-10.0694
▁sword	-10.0709
▁flag	-10.071
▁stronger	-10.0715
▁unique	-10.0735
▁learning	-10.0737
▁shake	-10.0755
▁exclaimed	-10.0758
▁camera	-10.078
▁yarn	-10.078
▁slipped	-10.078
▁grown	-10.0813
licked	-10.0824
▁Nemo	-10.0825
▁spun	-10.0825
▁loudly	-10.0841
▁happiness	-10.0848
▁dreams	-10.086
▁tools	-10.0896
▁rich	-10.09
▁balloons	-10.0906
▁reliable	-10.094
▁My	-10.0945
▁angel	-10.0961
▁Blue	-10.0962
▁shark	-10.0983
▁crayon	-10.0985
▁jog	-10.0986
▁already	-10.1009
▁bags	-10.1013
▁painting	-10.1021
▁wonder	-10.1046
▁cleaning	-10.1047
▁Dave	-10.1054
▁clay	-10.1055
▁useful	-10.1055
▁Bobby	-10.1079
▁birdie	-10.1087
▁turtle	-10.1101
▁tunnel	-10.1101
▁loyal	-10.1102
▁barn	-10.1125
▁walls	-10.113
▁needs	-10.1134
▁clap	-10.1148
▁using	-10.1153
▁hats	-10.1161
▁hero	-10.1164
▁figure	-10.1191
▁difficult	-10.1194
▁wake	-10.1195
▁laughs	-10.1212
▁buttons	-10.1229
▁bushes	-10.1243
▁boys	-10.1247
▁cover	-10.1263
▁whale	-10.1266
▁painted	-10.1278
▁extra	-10.129
▁nosy	-10.129
▁pen	-10.1291
▁sounded	-10.1311
▁obedient	-10.1312
▁guitar	-10.1314
▁Ducky	-10.1314
▁diamond	-10.1315
▁dove	-10.132
▁office	-10.1338
▁counted	-10.1344
▁parrot	-10.1362
▁bald	-10.1362
▁yours	-10.1365
▁collect	-10.1377
▁stubborn	-10.1385
▁four	-10.1385
▁thoughtful	-10.141
▁sight	-10.1412
▁cart	-10.1425
er	-10.1429
▁notice	-10.1431
▁normal	-10.1456
▁skin	-10.1458
▁rug	-10.1458
▁fat	-10.1458
▁wealthy	-10.1458
▁island	-10.1459
▁invited	-10.146
▁cross	-10.1474
▁weird	-10.1482
▁sunflower	-10.1484
▁joined	-10.1497
▁mole	-10.1506
▁Rose	-10.1507
▁pirate	-10.1509
Here	-10.1513
▁explored	-10.1523
▁fierce	-10.1529
▁icy	-10.1531
▁independent	-10.1531
▁saying	-10.1541
▁sauce	-10.1555
▁tank	-10.1556
▁march	-10.1571
▁scream	-10.1576
n	-10.158
▁shout	-10.16
▁means	-10.1603
▁bossy	-10.1604
▁swan	-10.1632
▁chicken	-10.1633
▁harder	-10.1634
▁smaller	-10.1635
▁kick	-10.1649
▁built	-10.1653
▁spoiled	-10.1655
▁numbers	-10.1661
▁ancient	-10.1682
▁goat	-10.1685
▁stairs	-10.1691
▁space	-10.1703
▁stumbled	-10.1703
Be	-10.1717
▁escape	-10.1724
▁fountain	-10.1728
▁picking	-10.1752
;	-10.1752
▁enormous	-10.1752
▁fragile	-10.1753
▁miss	-10.1769
▁practice	-10.1774
▁Grandpa	-10.1778
A	-10.1779
▁poured	-10.178
▁gold	-10.1802
▁bounce	-10.1803
Me	-10.1819
▁seeds	-10.1823
▁log	-10.1836
Well	-10.1851
▁rode	-10.1854
▁hose	-10.1857
œLet	-10.186
▁ear	-10.188
▁power	-10.1883
▁trumpet	-10.1903
▁penny	-10.1928
▁proudly	-10.193
▁solve	-10.195
▁chose	-10.1953
▁frightened	-10.1954
▁salad	-10.1954
▁roof	-10.1954
▁city	-10.1954
old	-10.1956
▁nurse	-10.1959
▁cone	-10.196
▁half	-10.1979
▁admired	-10.1982
▁searching	-10.1984
▁wrap	-10.1985
▁bull	-10.2002
▁tummy	-10.2005
▁delighted	-10.2008
▁lights	-10.2021
▁showing	-10.2023
▁stage	-10.203
▁dull	-10.203
▁lizard	-10.2036
▁brothers	-10.2046
▁barber	-10.2056
▁shells	-10.2076
▁act	-10.2079
▁fresh	-10.208
▁above	-10.2082
▁beak	-10.2082
▁stupid	-10.2082
▁fingers	-10.2083
▁shape	-10.2085
▁horn	-10.2089
▁suggested	-10.2108
▁excitedly	-10.2125
▁shone	-10.2133
▁flashlight	-10.2133
▁spray	-10.2156
▁cactus	-10.2159
▁terrible	-10.2159
▁attic	-10.216
▁spilled	-10.216
▁locked	-10.2165
▁valuable	-10.2185
▁Ellie	-10.2211
▁successful	-10.2236
▁yet	-10.2237
▁Sandy	-10.2237
▁thirsty	-10.2237
▁kicked	-10.2241
▁tap	-10.226
▁screen	-10.2263
▁George	-10.2264
se	-10.2266
▁envelope	-10.227
▁To	-10.2297
▁stove	-10.2316
▁Polly	-10.2343
▁son	-10.2347
▁pan	-10.235
▁ending	-10.2381
▁regular	-10.2394
▁witch	-10.2395
▁Alex	-10.2395
▁stream	-10.2395
▁Paul	-10.2395
▁delicate	-10.2395
▁themselves	-10.2395
▁brightly	-10.2432
▁original	-10.2449
▁dreaming	-10.246
▁raced	-10.2464
▁beetle	-10.2485
▁spaghetti	-10.2502
▁view	-10.2502
▁Lola	-10.2502
▁wiped	-10.2505
▁Next	-10.2505
▁changed	-10.2508
▁washed	-10.2516
▁Your	-10.2527
▁cereal	-10.2529
▁add	-10.2532
▁rat	-10.2535
▁Andy	-10.2545
▁warned	-10.2557
▁rushed	-10.2558
▁hay	-10.2583
▁Joey	-10.2589
▁pumpkin	-10.2594
▁stickers	-10.2596
▁leaving	-10.261
▁those	-10.261
▁clumsy	-10.261
▁biggest	-10.2637
▁dead	-10.2637
▁popcorn	-10.2637
▁scare	-10.2645
▁Kim	-10.2665
▁dough	-10.2665
▁bees	-10.2666
▁kid	-10.2677
▁toast	-10.2682
▁boats	-10.2684
▁serious	-10.269
▁Red	-10.2692
▁meal	-10.2708
▁corn	-10.2719
▁library	-10.2719
▁ow	-10.2747
▁gem	-10.2757
▁desk	-10.2758
▁finding	-10.2763
▁suit	-10.2786
▁spend	-10.2798
▁telling	-10.2801
▁early	-10.2803
▁uncle	-10.2804
▁imagined	-10.2805
▁peeked	-10.2805
▁jacket	-10.2815
▁pass	-10.2821
▁sorts	-10.2829
▁missing	-10.2834
▁hairy	-10.2834
▁carpet	-10.2857
▁collar	-10.2857
▁ingredients	-10.2858
▁humble	-10.2859
▁counting	-10.2865
▁stranger	-10.2872
▁playful	-10.2882
▁careless	-10.2884
▁advice	-10.2885
▁hoop	-10.2898
▁feather	-10.2899
▁pale	-10.2913
▁stops	-10.292
How	-10.2921
▁create	-10.2937
▁cheap	-10.2941
▁kinds	-10.2943
▁doesn	-10.2944
▁ways	-10.2945
▁pepper	-10.2955
▁forth	-10.2959
▁Ann	-10.2966
▁graceful	-10.2968
▁flexible	-10.2969
▁Toby	-10.297
▁delight	-10.2985
▁sudden	-10.2996
▁driving	-10.2997
▁guilty	-10.2997
▁impressive	-10.3026
▁thunder	-10.3026
▁Tweetie	-10.3026
▁whispered	-10.3027
▁print	-10.3033
▁hunter	-10.3039
▁gum	-10.3042
▁thinking	-10.3053
▁jolly	-10.3054
▁carrying	-10.3063
▁knows	-10.3064
▁sticker	-10.3072
▁nicely	-10.3082
▁allowed	-10.3083
▁twirled	-10.3084
▁low	-10.3087
▁Look	-10.3092
▁sparkled	-10.3113
▁handle	-10.3139
▁popular	-10.314
▁hippo	-10.3168
▁prize	-10.3168
▁cards	-10.3187
▁sink	-10.3193
▁aunt	-10.3197
▁tied	-10.3202
▁rubbed	-10.3226
▁friendship	-10.3255
▁wing	-10.3274
▁patch	-10.3283
▁persistent	-10.3284
▁uncomfortable	-10.3284
▁charming	-10.3284
▁metal	-10.3284
▁cooking	-10.3291
▁dolphin	-10.3301
▁shocked	-10.3314
▁anxious	-10.3342
▁refused	-10.3342
▁Mike	-10.337
▁butterflies	-10.3371
▁fork	-10.3385
There	-10.339
▁unknown	-10.34
▁gasped	-10.3401
▁lead	-10.3413
▁fear	-10.3423
▁hammer	-10.3426
▁pants	-10.343
▁houses	-10.3433
▁trap	-10.3447
▁pencil	-10.3448
▁celebrate	-10.3456
▁spinning	-10.3459
▁zip	-10.3477
▁chasing	-10.3489
▁nature	-10.3489
▁pasta	-10.3519
▁led	-10.3523
▁ordinary	-10.3548
▁truth	-10.3548
Ow	-10.3559
▁week	-10.3568
▁cocoa	-10.3608
▁split	-10.3608
▁wheels	-10.3629
▁opens	-10.3635
▁less	-10.3642
▁goose	-10.3646
▁scale	-10.3658
▁past	-10.3668
▁chance	-10.3668
▁spoke	-10.3668
▁tooth	-10.3675
▁shine	-10.3714
▁slid	-10.3717
▁magnet	-10.3719
▁skip	-10.3728
▁crane	-10.3729
▁bent	-10.3729
▁math	-10.3729
r	-10.3738
œIt	-10.3739
▁growing	-10.374
They	-10.3742
▁crazy	-10.3759
▁modern	-10.3759
▁harmless	-10.3759
▁snuggled	-10.376
▁question	-10.3777
▁sleeping	-10.3778
▁post	-10.3788
▁fan	-10.379
▁restaurant	-10.379
▁fireman	-10.379
▁Grace	-10.379
œWhat	-10.3798
▁ghost	-10.3809
▁lemon	-10.3811
▁fold	-10.3811
▁beauty	-10.382
▁trash	-10.382
▁cord	-10.382
▁shoot	-10.3821
▁reindeer	-10.3851
▁intelligent	-10.3851
▁slides	-10.3861
▁umbrella	-10.3872
▁comb	-10.3878
▁Millie	-10.3882
He	-10.3893
▁handed	-10.3898
▁compassionate	-10.3912
▁sofa	-10.3912
▁disgusting	-10.3913
Go	-10.3915
▁candle	-10.3935
▁shoe	-10.3936
▁drawer	-10.3937
▁travel	-10.3954
▁ahead	-10.3975
▁bracelet	-10.3997
▁afternoon	-10.4006
▁distant	-10.4006
▁jelly	-10.4006
▁melon	-10.4006
▁wheat	-10.4006
▁sandwiches	-10.4006
▁Brownie	-10.4006
▁kangaroo	-10.4028
▁pigeon	-10.4029
▁harsh	-10.4037
▁ignorant	-10.4037
▁clock	-10.4037
▁arrow	-10.4061
▁twig	-10.4061
▁seem	-10.4084
▁dug	-10.41
▁purse	-10.41
fore	-10.4104
▁rules	-10.4119
▁cupboard	-10.4123
▁return	-10.4123
▁cap	-10.4128
▁names	-10.4129
▁coffee	-10.4131
▁flour	-10.4131
▁shield	-10.4131
▁guard	-10.4151
▁impatient	-10.4161
▁Maria	-10.4163
▁shut	-10.4163
▁sell	-10.419
▁restless	-10.4195
▁speed	-10.4222
▁jug	-10.4226
▁trophy	-10.4226
▁gifted	-10.424
▁bark	-10.4244
▁crocodile	-10.4251
▁starts	-10.426
▁miserable	-10.429
up	-10.4295
▁Gi	-10.4305
▁bump	-10.4316
▁hang	-10.4318
▁value	-10.4319
▁send	-10.4323
▁pilot	-10.4323
▁pretending	-10.4344
▁computer	-10.4349
▁itself	-10.4355
▁Sophie	-10.4355
▁sadly	-10.4356
▁cricket	-10.438
▁axe	-10.4387
▁further	-10.4387
▁practiced	-10.4392
▁record	-10.4411
▁anywhere	-10.442
▁goal	-10.4426
▁note	-10.4431
▁chew	-10.4438
▁rose	-10.4447
▁station	-10.4452
▁cooler	-10.4456
▁order	-10.4471
▁mark	-10.4471
▁mailbox	-10.4485
▁jeep	-10.4485
▁parade	-10.4485
▁Will	-10.4491
œYes	-10.4498
a	-10.4505
▁needle	-10.4514
▁painter	-10.4521
▁helps	-10.4533
▁cop	-10.4539
▁otter	-10.4545
▁dish	-10.455
▁envious	-10.4551
▁rice	-10.4551
▁stack	-10.4551
▁anyway	-10.4551
▁reading	-10.4578
▁drop	-10.458
▁class	-10.4583
▁scoop	-10.4584
▁silver	-10.4584
▁Buddy	-10.4584
▁Bunny	-10.4584
▁wishes	-10.4584
▁creatures	-10.46
▁helmet	-10.4613
▁forgave	-10.4617
▁cheer	-10.4638
▁Are	-10.4643
▁jet	-10.4645
▁sweater	-10.4645
▁laser	-10.4646
▁bin	-10.465
▁stretched	-10.4653
œThat	-10.4658
▁blow	-10.4675
▁ten	-10.4677
▁engine	-10.4677
▁message	-10.4679
▁scooter	-10.4679
▁track	-10.468
▁attractive	-10.4683
▁nowhere	-10.4684
▁design	-10.4704
▁study	-10.4713
▁panda	-10.4713
▁package	-10.4713
▁cushion	-10.4713
▁hung	-10.4716
▁eraser	-10.4717
▁jumps	-10.472
▁brighter	-10.4721
▁tool	-10.4726
▁troubled	-10.4728
▁older	-10.4729
▁helpless	-10.4745
▁alert	-10.475
▁football	-10.475
▁competitive	-10.475
▁pastry	-10.475
cream	-10.4763
▁giggle	-10.4777
▁shrimp	-10.4779
▁hurry	-10.478
▁sock	-10.4784
▁Where	-10.4784
▁soar	-10.4801
▁badly	-10.4807
▁towers	-10.4811
▁bandage	-10.4811
▁Fin	-10.4819
▁tricks	-10.4843
▁pour	-10.4844
▁nut	-10.485
▁salt	-10.4851
▁microphone	-10.4852
▁theater	-10.4852
▁gloomy	-10.4852
▁fearful	-10.4852
▁pressed	-10.4855
▁visited	-10.4872
▁letters	-10.4888
▁switch	-10.4916
▁admire	-10.4916
▁wire	-10.4918
▁pony	-10.492
▁bathtub	-10.492
▁deaf	-10.492
See	-10.4934
▁relax	-10.4946
▁Here	-10.4946
▁spring	-10.495
▁size	-10.4961
▁treasures	-10.4966
▁leopard	-10.4986
▁soldier	-10.4987
▁courage	-10.4988
▁Tweet	-10.4989
▁shouts	-10.5018
▁statue	-10.5021
▁squash	-10.5023
▁peace	-10.5023
▁swinging	-10.5052
▁may	-10.5057
▁gorilla	-10.5058
▁raven	-10.5058
▁bounced	-10.5063
▁roared	-10.5065
year	-10.5072
▁Smith	-10.5092
▁tray	-10.5092
▁hive	-10.5092
▁Annie	-10.5093
▁mop	-10.5093
▁five	-10.5094
▁starting	-10.5113
▁pack	-10.5119
▁cows	-10.5122
▁hook	-10.5122
▁modest	-10.5127
Gi	-10.5133
▁vine	-10.5162
▁peach	-10.5162
▁adorable	-10.5162
▁shopkeeper	-10.5162
▁Everything	-10.5163
▁riding	-10.5163
▁film	-10.5196
▁hockey	-10.5197
▁powder	-10.5197
▁notebook	-10.5197
▁wallet	-10.5197
▁respectful	-10.5197
▁nuts	-10.5199
▁Bill	-10.5231
▁shaking	-10.5232
▁Whiskers	-10.5233
▁stuff	-10.526
▁tire	-10.5264
▁behave	-10.5264
▁steps	-10.5274
▁sort	-10.5296
▁rescue	-10.5299
▁neat	-10.5301
▁stir	-10.5303
▁filthy	-10.5303
▁Kate	-10.5303
▁sneak	-10.5338
▁either	-10.5339
▁stirred	-10.5339
▁tripped	-10.5339
▁windows	-10.5346
▁support	-10.537
▁decorate	-10.5371
▁pin	-10.5373
Yay	-10.5374
▁motorcycle	-10.5374
▁octopus	-10.5374
▁Jerry	-10.5374
▁sunset	-10.5374
▁sandbox	-10.5375
▁crystal	-10.5375
▁nobody	-10.5378
▁checked	-10.5382
▁boots	-10.5392
▁guess	-10.5402
▁skeleton	-10.541
▁sent	-10.541
▁pebble	-10.5412
▁sailor	-10.5412
▁ants	-10.5436
▁zipper	-10.5446
▁giraffe	-10.5448
▁square	-10.5448
▁pushing	-10.5458
▁rhinoceros	-10.5482
▁thread	-10.5483
▁lightning	-10.5483
▁James	-10.5483
▁somewhere	-10.5483
▁marble	-10.5485
▁cooked	-10.5492
▁crawl	-10.5512
▁organize	-10.5518
▁volcano	-10.5518
▁porch	-10.5519
▁clapping	-10.5519
▁Snowy	-10.5519
▁barrel	-10.5519
▁rolling	-10.5527
▁stared	-10.5535
▁point	-10.5548
▁knock	-10.5549
▁dessert	-10.5555
▁leash	-10.5555
▁kayak	-10.5587
▁quick	-10.5589
▁available	-10.5593
▁pulls	-10.5597
▁dishes	-10.5628
▁task	-10.5631
▁case	-10.5665
▁happier	-10.5665
▁rub	-10.5667
▁danger	-10.5668
▁jewel	-10.5668
▁triangle	-10.5668
▁jokes	-10.5678
▁cats	-10.5696
▁seal	-10.5701
▁frowned	-10.5703
▁barking	-10.5707
▁perform	-10.573
▁complete	-10.5734
▁museum	-10.5739
▁toilet	-10.5739
▁listening	-10.5758
▁holes	-10.5768
▁climbing	-10.5773
▁van	-10.5776
▁laundry	-10.5776
▁weather	-10.5777
▁colours	-10.5781
▁hadn	-10.5784
▁crack	-10.5784
▁learnt	-10.5798
▁broccoli	-10.5813
▁pipe	-10.5817
▁lollipop	-10.5818
▁paws	-10.5823
▁polish	-10.5843
▁reef	-10.5851
▁Henry	-10.5851
▁Rosie	-10.5889
▁pushes	-10.5889
▁closely	-10.59
▁cane	-10.5913
▁resist	-10.5918
▁Bear	-10.5926
▁heal	-10.5926
▁yacht	-10.5926
▁blowing	-10.5931
▁mask	-10.5931
▁tear	-10.5936
▁E	-10.5941
▁steal	-10.596
▁golf	-10.5962
▁turkey	-10.5964
▁motor	-10.5968
▁chain	-10.5968
▁napkin	-10.597
▁costume	-10.597
▁marched	-10.597
▁papers	-10.6
▁frame	-10.6002
▁lively	-10.6005
▁stuffed	-10.6006
▁trains	-10.6008
▁dancer	-10.601
Anna	-10.6021
▁bicycle	-10.604
▁pair	-10.604
▁backpack	-10.6045
▁yell	-10.6077
▁haircut	-10.6084
▁peanut	-10.6085
▁barks	-10.6086
▁ostrich	-10.6117
▁tube	-10.6125
▁softly	-10.6131
▁drawings	-10.6146
▁wander	-10.6148
▁mild	-10.6156
▁stamp	-10.6159
▁ended	-10.6171
▁ink	-10.6177
▁monkeys	-10.6183
▁raining	-10.619
▁glow	-10.6192
▁oil	-10.6193
▁chubby	-10.6194
▁piano	-10.6194
▁lid	-10.6194
▁mug	-10.6201
▁belt	-10.6201
▁wag	-10.6211
▁imagine	-10.6229
▁elevator	-10.6233
▁mechanic	-10.6233
▁shade	-10.6233
▁basketball	-10.6233
▁mixer	-10.6234
▁glove	-10.6241
Bye	-10.6252
▁seed	-10.6256
▁Lilly	-10.6272
▁unhappy	-10.6272
▁counter	-10.6274
▁judge	-10.6276
▁hoping	-10.6282
▁rod	-10.631
▁peek	-10.631
▁cauliflower	-10.6311
▁airport	-10.6311
▁spirit	-10.6312
▁bubble	-10.6316
▁evening	-10.633
▁S	-10.6346
▁wife	-10.6351
▁hut	-10.6354
▁zebra	-10.6359
▁symbol	-10.6359
▁welcomed	-10.6369
▁iron	-10.6386
▁leaned	-10.6392
▁dive	-10.6428
€“	-10.643
▁thief	-10.643
▁mama	-10.643
▁oyster	-10.6439
▁baseball	-10.647
▁mule	-10.647
▁grapes	-10.6472
▁lions	-10.6473
▁drops	-10.6475
▁unlock	-10.6502
▁beep	-10.6503
▁radish	-10.651
▁celery	-10.651
▁apologized	-10.6512
▁vest	-10.6519
▁Charlie	-10.655
▁cherries	-10.655
▁shelter	-10.655
▁trick	-10.6556
▁given	-10.6558
▁factory	-10.659
▁marry	-10.659
▁veil	-10.659
▁zoomed	-10.6599
▁cups	-10.6601
▁energy	-10.6672
▁maze	-10.6672
▁cabinet	-10.6672
▁Baby	-10.6672
▁thanks	-10.6675
▁pole	-10.6723
▁photo	-10.6724
▁chimney	-10.6753
▁bikes	-10.679
▁mill	-10.6794
▁furniture	-10.6794
▁club	-10.6805
▁mushroom	-10.6807
▁second	-10.6807
▁player	-10.6821
▁speak	-10.683
Because	-10.6835
▁Harry	-10.6836
▁raft	-10.6836
▁trail	-10.6836
▁violin	-10.6836
▁paid	-10.6836
▁pill	-10.6847
▁object	-10.6848
▁See	-10.6859
▁comfort	-10.6869
▁staff	-10.6877
▁sheet	-10.6892
▁T	-10.6897
▁enthusiastic	-10.6908
▁breaks	-10.6917
▁slippery	-10.6919
▁attention	-10.6919
▁gym	-10.6919
▁kitty	-10.6919
▁soccer	-10.6919
▁wool	-10.6919
▁hopes	-10.693
▁rag	-10.693
▁knot	-10.6932
▁hedge	-10.6961
▁perfectly	-10.697
▁lie	-10.697
▁page	-10.6975
▁falling	-10.6978
▁married	-10.7003
▁shakes	-10.7007
▁human	-10.7017
▁lime	-10.7017
▁onion	-10.7032
▁repair	-10.7041
▁crib	-10.7045
▁summer	-10.7045
▁sweetheart	-10.7045
▁lives	-10.7066
▁opera	-10.7078
▁Lee	-10.7087
▁armchair	-10.7087
▁cardboard	-10.7087
▁golden	-10.7088
Tim	-10.7109
Timmy	-10.7111
▁display	-10.7126
▁True	-10.713
▁pine	-10.7132
▁shouldn	-10.7138
▁sir	-10.7139
▁bananas	-10.7151
▁sticky	-10.718
▁smells	-10.7182
▁Would	-10.7184
▁meeting	-10.7185
▁stretch	-10.7206
▁tuna	-10.7216
▁belongs	-10.7223
TMm	-10.7243
▁Instead	-10.7259
▁Papa	-10.7259
▁scolded	-10.7259
▁reward	-10.7266
▁comet	-10.7266
▁avocado	-10.7275
▁deliver	-10.7276
▁swung	-10.7302
▁spell	-10.731
▁shower	-10.7318
▁frogs	-10.7334
▁chickens	-10.7339
▁straight	-10.7345
▁Danny	-10.7345
▁burned	-10.7349
▁explain	-10.7354
▁soil	-10.7358
▁puddles	-10.7384
▁file	-10.7389
▁fisherman	-10.7389
▁prevent	-10.7389
▁veterinarian	-10.7389
▁flies	-10.7389
▁tuck	-10.7408
▁pray	-10.7424
▁Brown	-10.7433
▁between	-10.7433
▁ceiling	-10.7433
▁imagination	-10.7433
▁journal	-10.7433
▁Ruby	-10.7433
▁created	-10.7439
▁petals	-10.7439
œYou	-10.7466
▁discover	-10.7468
▁tomato	-10.7477
▁classroom	-10.7477
▁thermometer	-10.7481
▁glowing	-10.7482
▁shoulder	-10.7503
▁pirates	-10.7516
▁dust	-10.7516
▁quarrel	-10.7517
▁kingdom	-10.7521
▁memories	-10.7521
▁plastic	-10.7521
▁Bun	-10.7525
▁raise	-10.7528
▁short	-10.7537
▁cabin	-10.7566
▁burn	-10.758
▁bulb	-10.7583
▁accept	-10.7602
▁radio	-10.761
▁slept	-10.761
▁jellyfish	-10.761
▁earth	-10.7611
▁folder	-10.7612
▁ignored	-10.7614
Your	-10.7625
▁skirt	-10.7628
ach	-10.7635
▁fishing	-10.7635
▁fields	-10.7646
▁gather	-10.7647
▁forgotten	-10.7655
▁celebrated	-10.7661
▁flame	-10.7675
▁mistakes	-10.7698
▁pup	-10.77
▁telephone	-10.77
▁oak	-10.7745
▁accepted	-10.775
▁bloom	-10.7756
▁makeup	-10.7768
▁alligator	-10.7791
▁infant	-10.7791
▁rubber	-10.7791
▁strength	-10.7791
▁taxi	-10.7791
▁vendor	-10.7791
▁country	-10.7791
▁throwing	-10.7805
▁throws	-10.7806
▁Tony	-10.7836
▁vet	-10.7837
▁serve	-10.7879
▁tub	-10.788
▁ambulance	-10.7882
▁swamp	-10.7883
▁seeing	-10.7883
▁load	-10.7898
▁magazine	-10.7904
▁cube	-10.7905
▁unpack	-10.792
▁worth	-10.7929
▁writing	-10.7929
▁alive	-10.7929
▁baking	-10.7929
▁wardrobe	-10.7929
▁shouting	-10.7936
▁presents	-10.7964
▁attach	-10.7971
▁squeeze	-10.7971
▁points	-10.7971
▁Rachel	-10.7975
▁creek	-10.7975
▁palace	-10.7975
▁winter	-10.7975
▁lemonade	-10.7975
▁Tina	-10.7975
and	-10.7999
▁acorn	-10.8
▁diary	-10.8021
▁planet	-10.8031
▁feelings	-10.8051
▁boot	-10.8059
▁Steve	-10.8068
▁Buzz	-10.8068
▁strawberry	-10.8068
▁television	-10.8068
▁hall	-10.807
▁hanging	-10.8074
▁twist	-10.8081
▁parent	-10.8092
▁introduce	-10.8096
Max	-10.8096
▁potato	-10.8115
▁fog	-10.8115
▁greedy	-10.8115
▁stable	-10.8116
▁medal	-10.8137
▁weigh	-10.8142
▁pinch	-10.8153
▁steam	-10.8158
▁prepare	-10.8159
▁flapped	-10.8162
▁helper	-10.8171
▁apron	-10.821
▁knob	-10.821
▁mystery	-10.821
▁Clara	-10.821
▁sprayed	-10.8217
▁sailing	-10.8223
▁argue	-10.8253
▁helicopter	-10.8257
▁offer	-10.8272
▁Help	-10.8301
▁harbor	-10.8305
▁mattress	-10.8305
▁First	-10.8306
▁below	-10.8308
▁minute	-10.8331
▁surrender	-10.8345
▁grill	-10.8353
▁sunglasses	-10.8353
▁waving	-10.8353
▁eagerly	-10.8357
▁However	-10.8357
▁microscope	-10.8401
▁dressed	-10.8413
▁known	-10.8418
▁cell	-10.8427
▁gas	-10.8432
▁leak	-10.8446
▁cherry	-10.845
▁popped	-10.845
▁language	-10.8477
▁pear	-10.849
▁disappear	-10.8491
▁fallen	-10.8499
Di	-10.8501
▁wine	-10.8507
▁wipe	-10.8523
▁follows	-10.8526
es	-10.8527
▁chalk	-10.8548
▁faucet	-10.8548
▁berry	-10.8549
▁separate	-10.8593
▁breeze	-10.8597
▁easily	-10.8597
▁blackboard	-10.8597
▁Mimi	-10.8597
▁God	-10.8607
ups	-10.8614
▁squirrels	-10.8637
▁Pat	-10.8647
▁Abigail	-10.8647
▁quietly	-10.8655
▁shadow	-10.8676
▁lend	-10.8692
▁entered	-10.87
▁taller	-10.87
▁crossed	-10.8705
▁headed	-10.8711
▁signs	-10.8717
▁exercise	-10.8722
▁reverse	-10.8743
▁apart	-10.8746
▁automobile	-10.8746
▁vacation	-10.8746
▁earlier	-10.8746
▁Maggie	-10.8746
▁kisses	-10.8747
▁meat	-10.875
▁poked	-10.875
▁relaxed	-10.8752
est	-10.877
▁waffle	-10.8777
▁lick	-10.8784
▁rake	-10.8793
▁alarm	-10.8797
▁fought	-10.8797
▁igloo	-10.8797
▁stadium	-10.8797
▁crawling	-10.8802
▁heads	-10.8804
▁crash	-10.8809
▁shovel	-10.8827
▁olive	-10.8827
▁melt	-10.8839
▁shrink	-10.8843
▁church	-10.8847
▁investigate	-10.8848
▁sniffed	-10.8848
▁dresses	-10.885
▁poke	-10.8873
▁luck	-10.8897
▁cliff	-10.8898
▁spade	-10.8898
▁Katie	-10.8898
▁fastest	-10.8902
▁press	-10.8916
▁sparkle	-10.8926
▁dear	-10.8929
▁cared	-10.893
▁Who	-10.8947
▁holiday	-10.8949
▁c	-10.8965
▁mint	-10.8981
▁improve	-10.8996
▁mist	-10.8999
▁buckle	-10.9
▁lawyer	-10.9
▁oasis	-10.9
▁Milly	-10.9
▁lotion	-10.9002
▁vroom	-10.9004
▁happens	-10.9012
▁bears	-10.9014
▁skills	-10.9025
▁caring	-10.9038
▁moves	-10.9048
▁yogurt	-10.9052
▁cable	-10.9052
▁sizes	-10.9054
▁Ted	-10.9057
▁poem	-10.9085
▁curtain	-10.9085
▁exam	-10.9103
▁Luckily	-10.9104
▁amazement	-10.9104
▁anchor	-10.9104
▁bouncing	-10.9104
▁destination	-10.9104
▁lawn	-10.9104
▁scattered	-10.9107
▁chairs	-10.9134
▁Spike	-10.9156
▁supply	-10.9156
▁splashing	-10.917
▁vehicle	-10.919
▁dishwasher	-10.9208
▁safety	-10.9208
▁trusted	-10.9218
▁trade	-10.9226
▁isn	-10.9236
▁doors	-10.924
▁puzzles	-10.9251
▁examine	-10.9257
▁ignore	-10.9258
▁mailman	-10.9261
▁yawned	-10.9263
▁waste	-10.9263
▁collected	-10.9269
▁muffin	-10.9296
▁Freddy	-10.9313
▁saving	-10.9314
▁shrugged	-10.9314
▁blueberries	-10.9314
▁floated	-10.9317
▁shooting	-10.9321
▁reache	-10.9328
▁choice	-10.9349
▁rise	-10.9367
▁spending	-10.9375
▁experience	-10.9398
▁ribbon	-10.9403
▁tug	-10.942
▁quiz	-10.942
▁poppy	-10.942
▁horses	-10.9435
▁passport	-10.9457
▁accident	-10.9458
▁pattern	-10.9458
▁remove	-10.947
▁Miss	-10.9474
▁bookcase	-10.9474
▁sparkling	-10.9474
▁agree	-10.9508
▁novel	-10.9511
▁penguin	-10.9512
▁finds	-10.9515
▁structure	-10.9528
▁laughter	-10.9528
▁squeezed	-10.9532
or	-10.9539
▁licks	-10.9548
▁following	-10.9549
l	-10.9563
▁spear	-10.9565
▁video	-10.9566
▁razor	-10.9582
▁buried	-10.9582
▁praised	-10.9583
▁eaten	-10.9587
▁hurting	-10.9588
▁candles	-10.9596
▁flea	-10.9621
▁spots	-10.9627
Ha	-10.9635
▁Penny	-10.9637
Yuck	-10.9637
▁rot	-10.9637
▁oranges	-10.9651
▁musician	-10.9675
▁hearts	-10.9677
▁fuel	-10.9692
▁King	-10.9692
▁beans	-10.9705
▁worms	-10.9732
▁spoil	-10.9739
▁tornado	-10.9747
▁blinked	-10.9749
▁loop	-10.9788
▁appreciate	-10.9803
▁snapped	-10.9803
▁captain	-10.9803
▁battery	-10.9804
▁settled	-10.9806
▁destroyed	-10.9807
▁ringing	-10.9816
▁lab	-10.9817
▁washing	-10.982
Wait	-10.9838
▁understanding	-10.9848
▁manage	-10.9855
▁since	-10.9856
▁tide	-10.9859
▁dried	-10.9859
▁pit	-10.9859
ver	-10.9859
▁mall	-10.986
▁growled	-10.9861
▁setting	-10.9865
▁plates	-10.9884
▁aeroplane	-10.9899
▁sandcastle	-10.9901
▁bean	-10.9909
Ouch	-10.9913
▁shot	-10.9915
▁tutor	-10.9915
▁surprises	-10.9956
▁label	-10.9957
▁keeping	-10.996
▁destroy	-10.9967
▁invite	-10.9968
▁chess	-10.9971
▁fireplace	-10.9971
▁watches	-10.9975
▁wandered	-10.9977
Sam	-11.0009
▁myself	-11.0028
▁Everyday	-11.0085
▁chamber	-11.0085
▁dictionary	-11.0085
▁Joy	-11.0086
▁melted	-11.009
▁sneeze	-11.0124
▁castles	-11.0125
▁score	-11.0126
▁bravely	-11.0126
▁cheek	-11.013
▁root	-11.0132
▁strawberries	-11.0143
▁yoga	-11.0143
▁yucky	-11.0143
▁jewelry	-11.0143
▁freezer	-11.0143
And	-11.0182
▁oats	-11.0187
▁thumb	-11.0187
▁drain	-11.0196
▁festival	-11.0201
▁whip	-11.0201
▁art	-11.0202
▁breathe	-11.0209
▁claws	-11.0209
▁sip	-11.0242
▁airplane	-11.0246
▁toes	-11.0255
▁luggage	-11.0259
▁pride	-11.0259
▁port	-11.0259
▁spit	-11.027
▁someday	-11.0317
▁Chloe	-11.0317
▁vanished	-11.0319
▁floating	-11.0321
▁war	-11.0331
▁sings	-11.0331
▁pages	-11.0356
▁success	-11.0376
▁beamed	-11.0377
ness	-11.0392
▁blankets	-11.0407
▁coats	-11.0431
▁discuss	-11.0431
▁struggling	-11.0435
▁usual	-11.0435
▁provide	-11.044
▁beef	-11.0441
▁believed	-11.0465
▁tongue	-11.0482
▁nail	-11.0485
▁batter	-11.0494
▁blueberry	-11.0495
▁junk	-11.0495
▁temple	-11.0495
▁sunrise	-11.0495
▁burning	-11.05
▁B	-11.05
ray	-11.0535
▁nation	-11.0543
▁gear	-11.0544
▁ruin	-11.0551
▁mosquito	-11.0554
▁jogging	-11.0555
▁valley	-11.0555
▁whistling	-11.0555
▁chores	-11.0556
▁remain	-11.0611
▁observe	-11.0611
▁superhero	-11.0615
▁Unfortunately	-11.0615
▁immediately	-11.0615
▁lumber	-11.0615
▁missile	-11.0615
▁permission	-11.0615
▁Coco	-11.0615
▁cuddled	-11.0618
▁bathe	-11.0619
▁ranch	-11.0622
▁Or	-11.0628
▁hills	-11.063
▁teaching	-11.0631
▁enter	-11.0667
▁jazz	-11.0675
▁lily	-11.0675
▁gifts	-11.0693
▁weeks	-11.0696
▁planes	-11.0719
▁colour	-11.0719
▁law	-11.0725
▁palm	-11.0726
▁tease	-11.0734
▁steak	-11.0736
▁patiently	-11.0743
▁pulling	-11.0762
▁rabbits	-11.0774
seek	-11.0778
▁spark	-11.0787
▁ticket	-11.0789
▁pastel	-11.0789
▁Remy	-11.0798
▁calendar	-11.0798
▁stitch	-11.0855
▁marbles	-11.0855
▁Hav	-11.0856
▁future	-11.0859
▁People	-11.086
▁paused	-11.0861
▁warmth	-11.0862
▁Anne	-11.0864
▁collecting	-11.087
▁peanuts	-11.091
▁scratch	-11.0912
o	-11.0915
▁warning	-11.0916
▁coal	-11.0922
▁approached	-11.0922
▁thrilled	-11.0922
▁hotel	-11.0922
▁prayed	-11.0927
▁calls	-11.0936
▁receive	-11.0981
▁panic	-11.0984
▁alright	-11.0984
▁daisy	-11.0984
▁equipment	-11.0984
▁perfume	-11.0984
▁gust	-11.0984
▁chirping	-11.0986
▁encouraged	-11.0986
▁elephants	-11.1033
▁delay	-11.1043
▁earthquake	-11.1047
▁shampoo	-11.1047
▁skull	-11.1047
▁suppose	-11.1047
▁skipping	-11.1047
▁Beth	-11.1047
▁begged	-11.1048
▁insisted	-11.1048
▁moments	-11.1077
Sara	-11.1091
▁whisper	-11.1095
▁cartoon	-11.1104
▁restore	-11.1106
▁none	-11.1111
▁twisted	-11.1116
ied	-11.1139
▁tip	-11.1167
▁unite	-11.117
▁doggy	-11.1175
▁meowed	-11.1176
▁received	-11.1178
▁socks	-11.1179
▁bother	-11.1184
▁solved	-11.1184
▁ha	-11.1188
▁crow	-11.1234
▁weep	-11.1234
▁license	-11.1238
▁copper	-11.1238
▁revealed	-11.124
▁soldiers	-11.124
ur	-11.1255
▁hate	-11.1275
▁l	-11.1283
▁jewels	-11.1296
▁bricks	-11.1302
▁pistol	-11.1303
▁deeper	-11.1306
▁ordered	-11.131
▁stomach	-11.1361
▁comfy	-11.1367
▁refreshed	-11.1367
▁torn	-11.1367
▁matches	-11.1368
▁recognized	-11.1371
▁answers	-11.1402
al	-11.141
▁mustache	-11.1426
▁screw	-11.1428
▁un	-11.1429
▁urge	-11.1429
▁digging	-11.1433
▁remained	-11.1437
c	-11.144
▁Liz	-11.1444
▁patterns	-11.1453
▁complain	-11.149
▁apologize	-11.1498
▁blood	-11.1499
▁upstairs	-11.1499
▁rush	-11.1511
▁drinking	-11.1527
▁heat	-11.153
▁uniform	-11.1561
▁grinned	-11.1565
▁racing	-11.1565
▁discovery	-11.1566
▁chirped	-11.1567
▁simple	-11.1574
▁rooms	-11.1598
▁shiver	-11.1623
▁snap	-11.1627
▁decision	-11.1627
▁grape	-11.1628
▁circus	-11.1631
▁measured	-11.1643
▁float	-11.1686
▁parts	-11.1688
▁bury	-11.1694
▁sunlight	-11.1699
▁planted	-11.1718
œNo	-11.172
▁replace	-11.174
▁scatter	-11.1762
ctually	-11.1766
▁Bubbles	-11.1766
▁refrigerator	-11.1766
▁velvet	-11.1766
▁jogged	-11.1766
▁Poppy	-11.1767
▁buzzing	-11.1767
▁crashed	-11.1772
▁ideas	-11.1786
▁awe	-11.1817
▁twirl	-11.1826
ped	-11.183
▁difference	-11.183
▁settle	-11.1831
▁weapon	-11.1831
▁Nutty	-11.1834
▁glowed	-11.1841
▁herb	-11.1842
▁clearing	-11.1848
▁continue	-11.1899
▁university	-11.1903
▁worse	-11.1903
▁easier	-11.1903
▁newspaper	-11.1903
▁selling	-11.1912
▁bites	-11.1942
▁ash	-11.1969
▁bathrobe	-11.1972
▁bookshelf	-11.1972
▁history	-11.1972
▁menu	-11.1972
▁marching	-11.1983
Welcome	-11.2021
▁rested	-11.2021
▁gain	-11.2037
▁jail	-11.2041
▁ashtray	-11.2041
▁Suzy	-11.2041
▁prepared	-11.2047
▁cartoons	-11.2048
▁decorations	-11.2054
▁pigs	-11.2074
▁turning	-11.2079
▁camp	-11.2107
▁slip	-11.211
▁company	-11.2111
▁brick	-11.2111
▁fed	-11.2112
▁May	-11.2112
▁beside	-11.2115
▁sparkles	-11.2137
▁dare	-11.2178
▁Floppy	-11.2181
▁agreement	-11.2182
▁poison	-11.2182
▁Lucky	-11.2182
▁hated	-11.2249
▁collection	-11.2253
▁Luna	-11.2253
▁slice	-11.2253
▁writes	-11.2272
ar	-11.2317
▁By	-11.2323
▁admiring	-11.2324
▁possible	-11.2324
▁crunchy	-11.2324
▁mitten	-11.2325
▁soared	-11.2332
▁chewed	-11.2333
▁lands	-11.2379
th	-11.2381
▁succeed	-11.2388
▁repeat	-11.2389
Really	-11.2396
▁tomatoes	-11.2396
▁cobweb	-11.2398
▁examined	-11.2401
▁attached	-11.2402
▁watered	-11.2413
looking	-11.2449
Would	-11.2452
▁Moral	-11.2468
▁sore	-11.2494
Thanks	-11.25
ce	-11.2501
▁sprinkles	-11.2507
▁spoons	-11.2509
Mmm	-11.2533
▁permit	-11.2541
▁Chirpy	-11.2541
▁neighborhood	-11.2541
▁practicing	-11.2541
▁curled	-11.2542
▁lecture	-11.2543
▁weren	-11.2566
▁fixing	-11.2599
it	-11.2614
▁grey	-11.2615
▁surrounded	-11.2615
▁wizard	-11.2615
▁grocery	-11.2615
▁trapped	-11.2616
▁Hoppy	-11.2616
▁freeze	-11.2616
▁reminder	-11.2618
body	-11.2639
▁problems	-11.2662
▁yield	-11.2681
▁realize	-11.2685
▁brain	-11.2692
▁hanger	-11.2692
▁insect	-11.2693
▁cutting	-11.2695
▁peer	-11.27
▁onwards	-11.2717
▁strangers	-11.2727
lways	-11.273
▁weight	-11.2751
▁request	-11.2759
▁Betsy	-11.2763
▁safari	-11.2763
▁Josh	-11.2763
▁Tilly	-11.2763
▁model	-11.2766
▁lip	-11.2768
▁tracks	-11.2771
▁news	-11.2775
mething	-11.2786
▁dur	-11.2794
▁cakes	-11.2802
▁gloves	-11.2823
▁shed	-11.2824
▁appear	-11.2834
▁sidewalk	-11.2839
▁subway	-11.2839
▁villagers	-11.2839
▁waist	-11.2839
▁perched	-11.2839
▁sausage	-11.2844
▁firework	-11.2844
▁pinched	-11.2845
▁escaped	-11.285
▁wanting	-11.2863
▁flood	-11.291
▁downstairs	-11.2914
▁wisdom	-11.2914
▁zero	-11.2915
▁remembers	-11.2916
▁argued	-11.292
▁bowed	-11.2938
▁rained	-11.298
▁guns	-11.2982
▁event	-11.2988
▁Jenna	-11.2991
▁whistled	-11.3011
▁itch	-11.3029
▁costumes	-11.3056
▁area	-11.3057
▁firemen	-11.3068
▁gotten	-11.3068
▁memory	-11.3068
▁zipped	-11.3068
▁mister	-11.3068
▁six	-11.3068
▁x	-11.3071
▁price	-11.3073
▁mineral	-11.3074
▁sliding	-11.3078
▁visiting	-11.3116
▁surf	-11.3138
▁muddy	-11.3145
▁steel	-11.3145
▁petted	-11.3145
▁bleeding	-11.3146
▁pancakes	-11.3153
▁seats	-11.3192
Dad	-11.3203
▁accidents	-11.3215
▁Tiny	-11.3223
▁bunnies	-11.3223
▁eagle	-11.3223
▁measuring	-11.3223
▁Sadly	-11.3223
▁anytime	-11.3224
▁monsters	-11.3228
▁massage	-11.3229
▁weighed	-11.323
▁prune	-11.3232
u	-11.3236
▁twigs	-11.3242
œThank	-11.325
▁ours	-11.3251
p	-11.3263
▁Jo	-11.3267
▁Adam	-11.3302
▁Cindy	-11.3302
▁hurricane	-11.3302
▁folded	-11.3312
▁pears	-11.3336
▁mouths	-11.3368
▁buildings	-11.337
▁Zoe	-11.3381
▁lamb	-11.3381
▁navy	-11.3381
▁grandmother	-11.3382
▁shopping	-11.3382
▁Someone	-11.3385
▁scratched	-11.3387
▁sold	-11.3387
▁neighbour	-11.3391
▁dinosaurs	-11.3393
▁brushed	-11.3399
▁Dan	-11.3441
▁recognize	-11.3458
▁fashion	-11.3461
▁billboard	-11.3461
▁bang	-11.3463
▁invitation	-11.347
▁guessed	-11.347
▁bones	-11.3511
▁blouse	-11.3542
▁leather	-11.3542
▁ripped	-11.3542
▁cuddle	-11.3549
▁comforted	-11.355
▁style	-11.3551
▁ornament	-11.3553
▁drinks	-11.3567
▁paints	-11.3612
▁mountains	-11.3613
▁pitch	-11.3619
▁birdcage	-11.3623
▁fascinated	-11.3623
▁happiest	-11.3623
▁overjoyed	-11.3623
▁Jessie	-11.3623
▁Sunny	-11.3624
▁disagreed	-11.3626
▁neighbors	-11.3665
Ready	-11.3686
▁Sure	-11.3687
▁stole	-11.3705
▁operation	-11.3705
▁rhythm	-11.3705
▁underground	-11.3705
▁struck	-11.3705
▁wonders	-11.3707
▁catching	-11.3711
▁vegetable	-11.3718
▁zooming	-11.3723
▁pillows	-11.3744
▁markers	-11.3758
▁rang	-11.3771
She	-11.3771
▁Ollie	-11.3788
▁brand	-11.3788
▁prettiest	-11.3788
▁snail	-11.3788
▁Jamie	-11.3788
▁sneezed	-11.3794
▁Sunday	-11.3798
▁waffles	-11.3821
▁rides	-11.3835
▁kindly	-11.3852
▁punish	-11.3867
en	-11.387
▁everyday	-11.3871
▁hurried	-11.3871
▁teaspoon	-11.3871
▁drift	-11.3871
S	-11.3872
▁wooden	-11.3872
ose	-11.3872
▁disturbed	-11.3875
▁succeeded	-11.3876
▁tune	-11.3884
▁sport	-11.3885
▁studied	-11.3955
rept	-11.3955
▁tugged	-11.3955
▁Sharing	-11.3957
▁strip	-11.3963
▁M	-11.3964
▁image	-11.3969
▁keeper	-11.3982
▁C	-11.4007
▁bottles	-11.402
▁yawn	-11.4032
▁oxygen	-11.404
▁Claire	-11.404
▁struggled	-11.4044
œLook	-11.4059
▁items	-11.4069
▁bridges	-11.4102
▁cones	-11.4105
▁lips	-11.412
▁tremble	-11.4122
▁struggle	-11.4122
▁underneath	-11.4126
▁spaceship	-11.4126
▁planned	-11.4126
▁included	-11.4131
▁served	-11.4133
▁bloomed	-11.4133
œDon	-11.414
▁officer	-11.4142
▁bye	-11.4153
▁muffins	-11.4153
▁pets	-11.4154
▁acorns	-11.4169
▁Julie	-11.4171
▁brings	-11.4177
▁secrets	-11.4195
▁obey	-11.4208
▁David	-11.4212
▁competition	-11.4212
▁Lizzy	-11.4212
▁responsible	-11.4212
▁Big	-11.4212
▁mentioned	-11.4214
▁soaring	-11.4227
▁creation	-11.4228
▁sting	-11.4232
▁landscape	-11.4299
▁neighbourhood	-11.4299
▁traffic	-11.4299
▁wagging	-11.4299
▁Uncle	-11.4299
▁Hop	-11.43
▁row	-11.4306
▁completed	-11.4308
▁sorting	-11.4309
▁tickets	-11.4311
▁beat	-11.4313
▁works	-11.4317
œWe	-11.4318
▁tastes	-11.4331
out	-11.4375
Or	-11.4381
▁tonight	-11.4386
▁potatoes	-11.4387
▁Santa	-11.4387
▁shivered	-11.4392
▁scurr	-11.4392
▁For	-11.4413
in	-11.4432
h	-11.4437
▁beard	-11.4448
▁screams	-11.4463
▁pearl	-11.4469
▁instructions	-11.4475
▁piles	-11.4475
▁curiosity	-11.4475
▁died	-11.4478
▁gained	-11.448
▁olives	-11.4509
b	-11.4542
▁lines	-11.455
▁Cat	-11.4555
▁Nina	-11.4564
▁precious	-11.4564
▁universe	-11.4564
▁decorated	-11.4574
▁sights	-11.4592
▁suffer	-11.4646
▁boss	-11.4653
▁steep	-11.4654
▁exactly	-11.4654
▁nicer	-11.4674
▁oat	-11.4675
▁doctors	-11.472
▁Al	-11.4723
Will	-11.4725
▁prunes	-11.4735
▁wreck	-11.4741
▁control	-11.4745
▁budge	-11.4745
▁frown	-11.4758
▁protected	-11.4767
▁parked	-11.4769
▁waits	-11.4777
▁Man	-11.4778
▁shadows	-11.4783
▁Di	-11.4822
▁ago	-11.4837
▁beneath	-11.4837
▁Slowly	-11.4837
▁slapped	-11.4837
▁frosting	-11.4837
▁properly	-11.4837
▁printer	-11.4839
▁paintings	-11.484
▁rocked	-11.4848
▁sadness	-11.4859
▁D	-11.4895
▁owned	-11.4916
€”	-11.493
▁contest	-11.493
▁knel	-11.493
▁librarian	-11.493
▁rubbing	-11.493
▁silence	-11.493
▁eight	-11.4931
▁released	-11.4933
▁yelling	-11.4939
▁stealing	-11.494
▁pouring	-11.4941
▁movies	-11.4944
▁flap	-11.4952
ake	-11.4981
▁babies	-11.5023
▁urged	-11.5028
▁twirling	-11.5029
▁gathering	-11.5032
▁mixing	-11.5046
▁penguins	-11.5051
▁shoulders	-11.5081
▁machines	-11.5086
▁powers	-11.5096
▁loving	-11.5116
Ok	-11.5117
▁Dolly	-11.5117
▁Nick	-11.5117
▁exit	-11.5118
▁purred	-11.5119
▁lemons	-11.5145
▁winner	-11.5213
▁reluctantly	-11.5213
▁barely	-11.5213
▁frozen	-11.5213
▁Afterwards	-11.522
▁unlocked	-11.5222
▁crackers	-11.5225
▁sorted	-11.5228
▁challenge	-11.5232
though	-11.5289
▁soak	-11.5301
▁fireworks	-11.5302
▁shock	-11.5305
▁mice	-11.5309
▁ranger	-11.5309
▁punished	-11.5313
▁dragg	-11.5315
▁stripes	-11.5319
▁regret	-11.534
▁muscles	-11.5352
▁fetch	-11.538
▁loose	-11.5381
raised	-11.539
▁bar	-11.5391
▁disturb	-11.5398
▁Frank	-11.5406
▁bouncy	-11.5406
▁Thomas	-11.5406
▁repeated	-11.5411
▁waiter	-11.542
▁men	-11.5424
▁voices	-11.5443
thank	-11.5484
use	-11.5486
▁Day	-11.5504
▁winning	-11.5504
▁emergency	-11.5504
▁mission	-11.5504
▁expected	-11.5507
▁pastels	-11.5518
▁printed	-11.5519
▁figured	-11.552
▁roaring	-11.5526
▁rail	-11.5531
▁beds	-11.554
▁breaking	-11.5556
away	-11.5584
▁contain	-11.5596
▁hunt	-11.5598
▁Emmy	-11.5603
▁throat	-11.5603
▁policeman	-11.5603
▁brushes	-11.5604
▁becoming	-11.5605
▁lied	-11.5612
▁Stop	-11.5623
▁dolphins	-11.5644
▁slimy	-11.5703
▁stirring	-11.5703
▁peaches	-11.5703
▁camping	-11.5709
▁Like	-11.5712
▁discovering	-11.5712
▁keys	-11.5717
▁screaming	-11.572
▁wondering	-11.5721
▁pedal	-11.5725
g	-11.5732
▁nightmare	-11.5732
ie	-11.5747
Happy	-11.5784
▁encourage	-11.58
▁increase	-11.58
▁seesaw	-11.5805
▁leader	-11.5806
▁applauded	-11.5808
▁stretching	-11.5814
▁west	-11.5839
▁guys	-11.5845
▁staring	-11.5849
▁planets	-11.5858
Yum	-11.5885
▁spiders	-11.5885
Spot	-11.5887
▁draws	-11.5892
▁include	-11.5905
▁balancing	-11.5906
▁unexpected	-11.5906
▁countryside	-11.5906
▁homework	-11.5909
▁acted	-11.5922
▁spraying	-11.5922
▁suitcase	-11.5937
▁effort	-11.5938
Remember	-11.5989
Daddy	-11.599
Goodbye	-11.5996
▁release	-11.6006
▁claps	-11.6008
▁Matt	-11.6008
▁Rob	-11.6009
▁giggling	-11.6009
▁goodnight	-11.6009
▁trembling	-11.6009
▁worries	-11.6009
▁strike	-11.6009
▁outdoors	-11.6014
▁highest	-11.6016
▁however	-11.6036
▁bank	-11.604
▁peck	-11.6042
▁heel	-11.6071
Mia	-11.6094
▁warn	-11.6106
▁broom	-11.6113
▁entrance	-11.6113
▁fabric	-11.6113
▁marriage	-11.6113
▁ourselves	-11.6113
▁teasing	-11.6113
▁touching	-11.6115
▁demanded	-11.6116
▁sisters	-11.6128
▁passing	-11.6129
▁roads	-11.613
▁direction	-11.6148
▁pies	-11.6149
▁ripe	-11.6149
▁cape	-11.6153
▁sighs	-11.6181
One	-11.6199
▁mittens	-11.6216
▁Jessica	-11.6218
▁greet	-11.6218
▁luxury	-11.6218
▁plenty	-11.6218
▁supplies	-11.6218
▁surface	-11.6218
▁shivering	-11.6225
▁matching	-11.6241
▁lean	-11.6245
▁solution	-11.6252
▁result	-11.6254
▁stroke	-11.6256
▁recommend	-11.6321
▁Linda	-11.6325
▁Mira	-11.6325
▁Rover	-11.6325
▁satisfied	-11.6325
▁wedding	-11.6325
▁completely	-11.6329
▁nails	-11.6344
▁baked	-11.6346
▁pockets	-11.6347
▁buckets	-11.6396
▁sides	-11.6413
▁Pip	-11.6432
▁Larry	-11.6432
▁Luke	-11.6432
▁twinkling	-11.6432
▁Hannah	-11.6432
Exc	-11.6432
▁restored	-11.6439
Put	-11.644
▁peel	-11.6461
▁season	-11.6469
▁lower	-11.653
▁sigh	-11.6534
▁entire	-11.654
▁poking	-11.6541
▁curly	-11.6541
▁Rabbit	-11.6541
▁balanced	-11.6561
▁pupil	-11.658
▁singer	-11.6586
Not	-11.6599
▁east	-11.6651
▁pajamas	-11.6651
▁written	-11.6651
▁bunch	-11.6651
▁pastries	-11.6651
▁Pinky	-11.6651
▁Lulu	-11.6651
▁quacked	-11.6655
▁loaded	-11.6661
▁rescued	-11.6663
œHello	-11.6667
▁quack	-11.6681
▁paddle	-11.6685
▁curtains	-11.669
▁prayer	-11.6692
▁marker	-11.6693
▁web	-11.6704
▁applaud	-11.6755
▁harm	-11.6762
▁Wednesday	-11.6762
▁burrow	-11.6762
▁forehead	-11.6762
▁kneeled	-11.6766
▁united	-11.6769
▁melting	-11.6771
k	-11.6773
▁polishing	-11.6774
▁studying	-11.6776
▁recorded	-11.6776
▁O	-11.6777
▁F	-11.6783
▁honk	-11.6795
▁flat	-11.6856
▁confident	-11.6873
▁boom	-11.6874
▁celebration	-11.6874
Two	-11.6874
▁creating	-11.6874
▁shelves	-11.6874
▁matched	-11.6898
▁rule	-11.6918
ping	-11.6919
▁Good	-11.6919
▁tour	-11.6924
▁sweeties	-11.6953
▁Jacky	-11.6959
▁motion	-11.6974
▁tasks	-11.6978
▁flash	-11.698
▁vanish	-11.698
▁slap	-11.6988
▁rainbows	-11.6988
▁Jacob	-11.6988
▁Abbie	-11.6989
▁dusty	-11.699
▁bravery	-11.6993
uck	-11.6995
▁cheering	-11.7002
▁kicking	-11.7007
▁flames	-11.7052
▁horns	-11.7071
▁Pam	-11.7077
▁keeps	-11.7083
▁blink	-11.7095
▁kneel	-11.7096
▁Sophia	-11.7103
▁Suzie	-11.7103
▁startled	-11.7104
▁ventured	-11.7104
▁itchy	-11.7104
▁single	-11.7104
▁bedtime	-11.7105
▁gazed	-11.7106
▁replaced	-11.711
▁weeping	-11.711
▁rolls	-11.7117
you	-11.7123
▁magnets	-11.7139
▁worker	-11.7164
ry	-11.7169
▁photos	-11.7186
▁ornaments	-11.7204
▁Carl	-11.7218
▁swoop	-11.7219
▁Gigi	-11.7219
▁arguing	-11.7219
▁hugging	-11.7219
▁truly	-11.7219
▁regretted	-11.7219
▁Betty	-11.722
▁misses	-11.722
▁healed	-11.7232
▁cracked	-11.7232
▁tickle	-11.7262
▁rid	-11.7263
▁bend	-11.7265
▁Bye	-11.7281
▁snakes	-11.7307
▁stamps	-11.7315
Sometimes	-11.7318
▁buying	-11.7326
▁pebbles	-11.7332
▁project	-11.7337
▁Abby	-11.7337
▁activities	-11.7337
▁patience	-11.7337
▁relief	-11.7337
▁tractor	-11.7337
▁ruler	-11.7337
ng	-11.7337
▁farther	-11.7338
▁crowd	-11.734
▁crabs	-11.7341
▁removed	-11.7346
œMommy	-11.7347
▁polished	-11.735
▁bumps	-11.7358
▁pencils	-11.7382
▁strings	-11.7412
▁towels	-11.7412
O	-11.7414
▁den	-11.7416
boo	-11.7428
▁sticking	-11.7437
▁zigzag	-11.7438
▁rumble	-11.7452
▁Kayla	-11.7456
▁Amelia	-11.7456
▁stolen	-11.7457
▁growling	-11.746
▁observed	-11.7463
▁peeking	-11.7469
▁shined	-11.7471
▁chewing	-11.7471
▁opening	-11.7477
▁sandcastles	-11.7486
▁explorers	-11.7494
▁cub	-11.7502
▁Tuesday	-11.7504
▁trips	-11.7505
▁achieve	-11.7573
Yeah	-11.7576
▁desert	-11.7576
▁fault	-11.7576
▁glasses	-11.7578
▁coloured	-11.7587
œOh	-11.759
▁traveled	-11.7592
▁roots	-11.7603
▁growl	-11.7615
▁pat	-11.7622
▁smiley	-11.7622
▁spike	-11.7628
▁prints	-11.7635
▁cuts	-11.7635
▁covers	-11.7693
▁pause	-11.7695
▁knowledge	-11.7698
▁bumpy	-11.7702
▁inch	-11.7705
▁chips	-11.7728
▁dipp	-11.7735
▁ladybug	-11.7749
▁firefighters	-11.775
▁bat	-11.7759
▁vowe	-11.7767
able	-11.7775
▁youth	-11.7788
▁yells	-11.7801
▁disagree	-11.7814
▁scar	-11.7817
▁Elly	-11.7822
▁hedgehog	-11.7822
▁victory	-11.7822
▁squealed	-11.7822
▁Karen	-11.7823
▁Leave	-11.7826
▁tickled	-11.7827
▁improved	-11.7831
œWhy	-11.7833
▁valued	-11.7836
▁crumbs	-11.7837
▁flags	-11.7838
▁rocking	-11.784
▁Happy	-11.7846
▁catche	-11.7848
▁herbs	-11.785
▁spill	-11.7868
oh	-11.7874
▁pop	-11.7875
▁rockets	-11.7906
▁H	-11.7912
▁reveal	-11.7943
▁twinkle	-11.7943
▁gaze	-11.7943
▁cause	-11.7945
▁yesterday	-11.7947
▁particular	-11.7947
▁Out	-11.7947
▁fuzzy	-11.7947
▁hallway	-11.7947
▁Owl	-11.7947
▁sobbed	-11.7951
Bad	-11.7959
▁wandering	-11.796
▁Not	-11.7963
▁creamy	-11.7966
▁lap	-11.797
▁copy	-11.7971
▁drives	-11.7995
▁sweets	-11.7998
▁staying	-11.8
▁boo	-11.8047
▁teache	-11.8056
▁rubs	-11.8062
▁squares	-11.8067
on	-11.807
▁Christmas	-11.8073
▁Water	-11.8073
▁families	-11.8073
▁wiggled	-11.8076
▁caused	-11.808
▁An	-11.8086
▁adding	-11.8093
▁coloring	-11.8115
▁seems	-11.8115
▁situation	-11.813
▁opinion	-11.813
▁sn	-11.8131
▁stair	-11.8132
▁stare	-11.8154
Fine	-11.8181
Mama	-11.8182
▁raindrops	-11.8202
▁sense	-11.8202
▁super	-11.8202
▁Robbie	-11.8202
▁wow	-11.8204
▁winked	-11.8205
▁safer	-11.8224
go	-11.8233
▁arrive	-11.8255
▁workers	-11.8283
When	-11.8311
▁dragons	-11.8311
▁sew	-11.8324
le	-11.8329
▁daisies	-11.8332
▁nectar	-11.8332
▁exhausted	-11.8332
▁dared	-11.8338
▁unpacked	-11.8343
▁packing	-11.8347
▁actions	-11.8377
▁peppers	-11.8397
▁resting	-11.8428
▁cough	-11.8455
▁pleasure	-11.8463
▁awesome	-11.8463
▁inviting	-11.8463
▁scrubbed	-11.8463
▁temperature	-11.8463
Uh	-11.8463
▁network	-11.8463
▁Lena	-11.8464
▁badge	-11.8465
▁cast	-11.8465
▁Follow	-11.8475
▁delivered	-11.8475
▁faced	-11.8501
▁agrees	-11.8503
Then	-11.8503
▁wasted	-11.8519
▁cost	-11.8525
ers	-11.8554
Mummy	-11.8576
▁sprinkle	-11.8582
▁June	-11.8596
▁groceries	-11.8596
▁liquid	-11.8596
▁warrior	-11.8596
▁seven	-11.8597
▁fairies	-11.8597
▁Jazz	-11.8597
▁baker	-11.8598
▁Zoom	-11.8601
▁darkness	-11.8601
▁smarter	-11.8604
▁blooming	-11.8609
▁speaking	-11.861
▁marked	-11.8613
▁needles	-11.8615
▁prove	-11.8644
▁twin	-11.8662
▁mane	-11.8679
▁importan	-11.8692
v	-11.8698
▁reply	-11.8732
▁Bongo	-11.8732
▁Mabel	-11.8732
▁Snuggles	-11.8732
▁Robby	-11.8732
▁piggy	-11.8732
▁fever	-11.8732
▁cautiously	-11.8732
▁princesses	-11.8735
▁achieved	-11.8736
▁soaked	-11.8737
▁recording	-11.8749
▁goals	-11.8753
▁calmed	-11.8772
▁jackets	-11.8805
▁click	-11.8864
▁yourselves	-11.8869
▁Jeff	-11.8869
▁Susan	-11.8869
▁Jones	-11.8869
▁beads	-11.8869
▁Flopsy	-11.8869
▁chuckled	-11.8869
▁interested	-11.887
▁potion	-11.8872
▁Mikey	-11.8873
▁recommended	-11.8874
▁hi	-11.8884
▁leading	-11.8888
▁Momo	-11.8893
▁somebody	-11.8898
▁delivery	-11.8924
ion	-11.8935
ch	-11.8969
hello	-11.8987
▁demand	-11.8999
▁expect	-11.8999
▁snuggle	-11.9004
▁Olive	-11.9007
▁Lizzie	-11.9007
▁Robert	-11.9007
▁awake	-11.9007
▁impossible	-11.9007
▁dentist	-11.9007
▁bakery	-11.9009
▁fluttered	-11.901
▁wires	-11.9015
▁Watch	-11.9017
▁blows	-11.9022
long	-11.9023
T	-11.9028
▁ribbons	-11.9051
▁scales	-11.9054
▁snowballs	-11.9059
▁unicorn	-11.9076
▁outfit	-11.9077
▁bars	-11.9109
uring	-11.9113
▁avoid	-11.9144
▁deserve	-11.9144
▁Binky	-11.9148
▁remote	-11.9148
▁sponge	-11.9148
▁losing	-11.9148
▁organizing	-11.9148
▁Zoomy	-11.9149
▁Buzzy	-11.9151
▁paddled	-11.9153
▁filling	-11.9178
oth	-11.9258
▁masks	-11.9271
John	-11.9271
Just	-11.9272
▁froze	-11.9291
▁joking	-11.9291
▁cashier	-11.9291
▁toddler	-11.9291
▁Johnson	-11.9291
▁Pippin	-11.9292
Great	-11.9293
▁Doggy	-11.9294
▁pointy	-11.9295
▁Th	-11.9299
▁owners	-11.9319
ack	-11.9338
at	-11.9342
w	-11.9351
▁wipes	-11.9354
▁eats	-11.9356
▁meow	-11.9362
▁Bo	-11.9363
▁wrist	-11.9364
▁skill	-11.9366
▁pedals	-11.9392
bye	-11.9398
▁napkins	-11.9414
▁glitter	-11.9427
▁mention	-11.9432
▁burst	-11.9436
▁determination	-11.9436
▁hesitant	-11.9436
▁deal	-11.9436
▁radishes	-11.9437
▁stomped	-11.9437
▁splashes	-11.9438
Meow	-11.9438
▁seeker	-11.9439
▁belly	-11.9445
▁hider	-11.9448
▁helmets	-11.9454
▁d	-11.9464
▁protecting	-11.9473
ful	-11.9486
▁colored	-11.9488
▁raincoat	-11.9511
▁seagull	-11.9512
▁limes	-11.9534
▁knees	-11.9558
▁secure	-11.9582
M	-11.9583
▁Jay	-11.9583
▁charge	-11.9583
▁scarves	-11.9583
▁storekeeper	-11.9583
▁candies	-11.9583
Roar	-11.9583
▁tiptoe	-11.9583
▁Nothing	-11.9586
▁sneaky	-11.9587
▁tallest	-11.9589
▁allow	-11.9591
▁Get	-11.9592
▁leaning	-11.9595
i	-11.9601
▁knights	-11.9618
▁re	-11.9632
▁chirp	-11.9651
▁wink	-11.9653
▁signed	-11.9655
▁talent	-11.9656
▁zookeeper	-11.9661
▁siren	-11.9662
Th	-11.972
▁chick	-11.9732
▁husband	-11.9732
▁miles	-11.9732
▁recipe	-11.9732
▁rising	-11.9732
▁Gary	-11.9732
▁Maddy	-11.9732
▁artist	-11.9732
▁afterwards	-11.9736
▁Sorry	-11.9738
▁everybody	-11.9743
▁ham	-11.975
▁dreamt	-11.9768
less	-11.982
▁bowls	-11.9827
▁objects	-11.9838
▁creations	-11.9855
▁die	-11.9881
▁glee	-11.9884
▁Jojo	-11.9884
▁Wendy	-11.9884
▁lettuce	-11.9884
▁third	-11.9884
▁diving	-11.9884
▁weekend	-11.9884
▁flapping	-11.9884
▁travelled	-11.9884
▁hesitated	-11.9884
▁parties	-11.9884
▁salty	-11.9888
▁gracefully	-11.9891
▁Goodbye	-11.9913
▁cheeks	-11.9918
▁wa	-11.9958
▁chef	-11.9967
▁lung	-11.997
▁pots	-11.9986
▁closes	-12.0016
C	-12.0022
▁giraffes	-12.003
▁chop	-12.0038
▁afford	-12.0038
▁feast	-12.0038
▁handsome	-12.0038
▁raccoon	-12.0038
▁rusty	-12.0038
▁sailboat	-12.0038
▁beginning	-12.0038
▁Granny	-12.0038
▁Zara	-12.0039
▁talented	-12.0042
▁tricked	-12.0053
▁aren	-12.0062
▁arrows	-12.0075
no	-12.0095
▁dots	-12.01
▁muscle	-12.0124
▁flavor	-12.0124
▁meals	-12.0126
▁dancers	-12.017
Mum	-12.0174
Rex	-12.0175
Jack	-12.0175
Tommy	-12.0175
▁wiggle	-12.019
▁slices	-12.0192
▁Milo	-12.0194
▁tangled	-12.0194
▁spoonful	-12.0195
▁siblings	-12.0197
▁requested	-12.0202
▁drawn	-12.0204
▁grin	-12.0212
▁marks	-12.0218
▁hissed	-12.0224
▁tigers	-12.0252
▁lungs	-12.0266
▁kites	-12.0299
▁naps	-12.0301
aking	-12.0328
▁rip	-12.0342
▁Tara	-12.0353
▁mixture	-12.0353
▁neither	-12.0353
▁snowmen	-12.0353
▁swept	-12.0353
▁flight	-12.0353
▁Laura	-12.0353
▁Ralph	-12.0354
▁fluttering	-12.0356
▁handful	-12.0357
▁master	-12.0358
▁Bluey	-12.0359
▁backwards	-12.0361
▁darker	-12.0367
▁folding	-12.0374
▁printing	-12.0376
▁wears	-12.0393
▁Janey	-12.0401
▁cousin	-12.0441
▁wound	-12.0443
▁adult	-12.0443
Boo	-12.0486
▁sausages	-12.0503
▁Chris	-12.0514
▁audience	-12.0514
▁grabbing	-12.0514
▁widened	-12.0514
▁superheroes	-12.0515
▁Enjoy	-12.0518
round	-12.0565
▁texture	-12.0607
▁guest	-12.0607
▁Bird	-12.0608
▁pans	-12.0622
loved	-12.0659
▁insects	-12.0669
▁threat	-12.0678
▁Earth	-12.0678
▁Holly	-12.0678
▁Mickey	-12.0678
▁familiar	-12.0678
▁worn	-12.0678
▁basement	-12.0678
▁gross	-12.0678
▁performance	-12.0678
▁Gina	-12.0678
▁starfish	-12.0678
▁Princess	-12.0678
▁Fox	-12.0679
▁windy	-12.0711
▁grassy	-12.0721
▁reads	-12.0736
▁uses	-12.0748
▁noses	-12.0748
▁chefs	-12.0754
▁stem	-12.0772
▁firefighter	-12.0774
▁pumpkins	-12.0777
▁wraps	-12.0804
▁G	-12.0807
▁logs	-12.0811
▁silent	-12.0843
▁Judy	-12.0845
▁Julia	-12.0845
▁celebrating	-12.0845
▁creativity	-12.0845
▁heavier	-12.0845
▁wrapping	-12.0845
▁pouted	-12.0846
L	-12.0851
▁complained	-12.0855
▁forgetting	-12.0857
▁bully	-12.086
oo	-12.086
▁paying	-12.0881
▁drawers	-12.0892
▁Ow	-12.0955
▁swims	-12.0961
Whee	-12.0992
Run	-12.0994
To	-12.1
▁Jax	-12.1014
▁accomplishment	-12.1014
▁bodies	-12.1014
▁indeed	-12.1014
▁puppies	-12.1014
Shh	-12.1014
▁Bessie	-12.1014
▁wept	-12.1014
▁Farmer	-12.1015
▁scratches	-12.1015
▁Frog	-12.1015
▁source	-12.1015
▁merry	-12.1016
▁Davey	-12.1021
▁provided	-12.1026
▁separated	-12.1027
▁shrinking	-12.1028
▁surroundings	-12.1033
▁mat	-12.1041
▁corners	-12.1106
▁guy	-12.1116
Next	-12.1167
▁knocks	-12.1175
B	-12.1178
▁includ	-12.1179
▁consequences	-12.1187
▁crew	-12.1187
Bang	-12.1187
▁dollhouse	-12.1187
▁Froggy	-12.1187
▁Paula	-12.1188
▁granted	-12.1189
▁tricky	-12.119
▁Keep	-12.1193
▁Stay	-12.1195
▁Friends	-12.1199
▁fears	-12.1223
▁clowns	-12.1268
▁scrape	-12.1277
▁presse	-12.1282
▁spikes	-12.1288
▁darling	-12.1291
▁avocados	-12.1296
▁foods	-12.1359
▁Stitch	-12.1362
▁hawk	-12.1362
▁horizon	-12.1362
▁magician	-12.1362
▁stool	-12.1362
▁plucked	-12.1362
▁nine	-12.1363
▁neatly	-12.1369
▁delivering	-12.1379
▁behaved	-12.1382
▁dresser	-12.1383
▁glued	-12.14
▁willing	-12.1425
▁forks	-12.1434
▁wishing	-12.145
come	-12.1478
▁humans	-12.1481
▁seconds	-12.1488
▁kicks	-12.1514
▁neighbours	-12.1519
Lila	-12.1521
▁planning	-12.1541
▁among	-12.1541
▁buzzed	-12.1544
bbled	-12.1545
▁Dog	-12.1549
▁rushing	-12.1552
▁teased	-12.1552
▁crossing	-12.1571
▁snatche	-12.1577
▁materials	-12.1587
▁timer	-12.16
▁tails	-12.1605
▁onward	-12.1652
▁gems	-12.1653
▁wins	-12.1711
▁flutter	-12.1714
▁damage	-12.1719
ince	-12.1721
▁chat	-12.1722
▁leas	-12.1722
▁Gemma	-12.1722
▁amount	-12.1722
Nice	-12.1723
▁Mouse	-12.1723
▁echoed	-12.1723
an	-12.1725
▁touches	-12.1732
▁screws	-12.1736
▁hitting	-12.1737
▁Listen	-12.1737
▁warnings	-12.1746
▁spices	-12.1747
▁hopeful	-12.1751
▁Remember	-12.1757
▁age	-12.1792
▁Po	-12.1828
▁remembering	-12.1831
œDo	-12.1837
▁pro	-12.1845
▁directions	-12.1846
▁listens	-12.1864
▁symbols	-12.1867
▁begin	-12.1873
P	-12.1885
▁lollipops	-12.1886
▁hides	-12.1889
▁sailors	-12.19
▁cobwebs	-12.1903
▁Abi	-12.1908
▁genie	-12.1908
▁stung	-12.1908
▁telescope	-12.1908
▁Todd	-12.1908
▁marshmallows	-12.1908
▁tunnels	-12.1911
▁strongest	-12.1919
▁peacefully	-12.1925
▁resisted	-12.1927
Ah	-12.1933
▁edges	-12.1937
▁rings	-12.1941
▁tested	-12.1949
let	-12.1959
▁Thanks	-12.2019
▁helpers	-12.2023
▁mushrooms	-12.204
▁L	-12.2046
▁ache	-12.2062
il	-12.2072
▁prettier	-12.2096
▁reason	-12.2096
▁Maddie	-12.2096
▁Until	-12.2096
▁imagining	-12.2096
▁rustling	-12.2096
▁sank	-12.2096
▁sale	-12.2096
▁Splash	-12.2098
▁honked	-12.2103
œMy	-12.2104
▁younger	-12.2105
▁designs	-12.2116
▁passengers	-12.2117
œWow	-12.213
▁feeding	-12.214
▁dip	-12.2144
▁choices	-12.2158
▁growls	-12.2207
▁ropes	-12.2216
▁swirl	-12.2217
▁snowball	-12.2218
▁hour	-12.2218
▁onions	-12.2239
▁minerals	-12.2271
▁players	-12.2279
▁pens	-12.2281
▁Curious	-12.2289
▁Martha	-12.2289
▁behavior	-12.2289
▁center	-12.2289
▁mesmerized	-12.2289
▁scientist	-12.2289
▁unsure	-12.2289
▁vanilla	-12.2289
▁stitches	-12.2289
▁Fuzzy	-12.2289
▁behaving	-12.229
▁Pretty	-12.2291
▁increased	-12.2296
▁complaining	-12.2301
▁praying	-12.2307
▁playtime	-12.2314
▁borrowed	-12.2324
▁sever	-12.2336
▁poems	-12.2358
▁nearly	-12.2359
▁adults	-12.2374
▁curiously	-12.2378
▁coral	-12.2411
▁drums	-12.2422
▁images	-12.2452
Little	-12.2465
Today	-12.2465
▁rivers	-12.2468
▁sniff	-12.2469
▁learns	-12.248
▁Amanda	-12.2485
▁ease	-12.2485
▁trampoline	-12.2485
▁wobbly	-12.2485
▁twice	-12.2485
▁zipping	-12.2485
▁joyful	-12.2485
▁swallowed	-12.2487
▁Aunt	-12.2487
▁vines	-12.2487
Yummy	-12.2487
▁rewarded	-12.2503
▁repaired	-12.2503
▁plans	-12.256
▁Well	-12.2581
▁wobble	-12.2608
▁action	-12.2615
▁noon	-12.264
ite	-12.2662
▁Stan	-12.2681
▁Green	-12.2683
▁final	-12.2683
Oops	-12.2685
▁Elsa	-12.2685
▁Ravi	-12.2685
▁couple	-12.2685
▁enthusiasm	-12.2685
▁geese	-12.2685
▁Wally	-12.2685
▁surfboard	-12.2685
▁flown	-12.2685
▁Birthday	-12.2685
▁arranged	-12.2685
▁dropping	-12.2685
▁Maya	-12.2685
▁Finn	-12.2686
▁treehouse	-12.2687
▁wobbled	-12.2688
œWell	-12.2695
▁poster	-12.2698
œHi	-12.2703
▁cushions	-12.2706
▁healing	-12.2707
▁braver	-12.2716
▁oh	-12.2717
▁spreading	-12.2744
her	-12.2774
nna	-12.2789
we	-12.2802
▁item	-12.2822
▁paths	-12.2833
▁Bee	-12.284
▁wip	-12.2883
efinitely	-12.2889
▁Queen	-12.2889
▁Spidey	-12.2889
▁beehive	-12.2889
▁blast	-12.2889
▁elf	-12.2889
▁refreshing	-12.2889
▁sandpit	-12.2889
▁Squeaky	-12.2889
▁travelling	-12.2889
▁heroes	-12.289
▁hearing	-12.2894
▁slower	-12.2895
▁lighter	-12.2903
▁warmer	-12.2914
▁finishing	-12.2954
▁matters	-12.2976
▁guests	-12.2978
▁baths	-12.2987
▁ma	-12.3069
▁sunflowers	-12.3077
▁notes	-12.3083
▁ignor	-12.309
▁Simon	-12.3095
▁stern	-12.3096
▁health	-12.3097
▁Fiona	-12.3097
▁awoke	-12.3097
▁examining	-12.3097
▁pennies	-12.3097
▁plain	-12.3097
▁seaweed	-12.3097
▁steady	-12.3097
▁thud	-12.3097
▁campfire	-12.3097
▁firefly	-12.3097
▁Sadie	-12.3097
▁Nora	-12.3097
▁slips	-12.3098
▁Zero	-12.3099
▁seller	-12.31
▁aimed	-12.31
▁focused	-12.31
▁thrown	-12.3103
œNow	-12.3104
yes	-12.3105
œCome	-12.3108
▁yielded	-12.3108
▁patte	-12.311
œMom	-12.3117
▁acting	-12.3131
▁flips	-12.3155
▁breathed	-12.3163
▁W	-12.3201
▁robber	-12.324
▁visitor	-12.3244
hind	-12.3288
Like	-12.329
▁triangles	-12.3291
▁caus	-12.3302
▁Zip	-12.331
Ew	-12.331
▁Alison	-12.331
▁Kelly	-12.331
▁Muffin	-12.331
▁beyond	-12.331
▁cuddly	-12.331
▁freedom	-12.331
▁scamper	-12.331
▁noodles	-12.331
▁Sparky	-12.331
▁chopped	-12.331
▁Squirrel	-12.331
▁Tessa	-12.331
▁squishy	-12.331
▁Jess	-12.3312
▁faded	-12.3312
▁slamm	-12.3312
▁chosen	-12.3313
▁politely	-12.3328
▁snowflakes	-12.3329
Time	-12.3332
▁swords	-12.334
▁cupcakes	-12.336
▁baskets	-12.3363
▁videos	-12.3374
▁stands	-12.3402
▁vow	-12.3406
--	-12.341
▁Dr	-12.3428
▁cowboy	-12.3456
▁oysters	-12.3477
▁sports	-12.3493
Playing	-12.3496
Follow	-12.3508
Grandma	-12.3508
▁Lia	-12.352
▁steer	-12.3523
▁William	-12.3527
▁twenty	-12.3527
▁Roger	-12.3527
▁daring	-12.3527
▁Katy	-12.3527
▁sneezing	-12.3528
▁toaster	-12.353
▁insisting	-12.3531
▁Hope	-12.3532
▁throughout	-12.3534
▁nervously	-12.3544
▁twisting	-12.3547
▁dived	-12.3548
▁softer	-12.355
um	-12.3551
▁shown	-12.3564
to	-12.3598
▁heading	-12.3602
▁sniffs	-12.3606
▁forgets	-12.3614
lent	-12.3619
▁warmly	-12.3624
▁flavors	-12.3627
▁whose	-12.3639
li	-12.3649
ut	-12.3654
▁pupils	-12.367
▁De	-12.3674
▁explorer	-12.371
Woof	-12.3729
▁spins	-12.3734
years	-12.3737
▁refuse	-12.3746
▁Daniel	-12.3749
▁Skip	-12.3749
▁decorating	-12.3749
▁grandson	-12.3749
▁Crabby	-12.3749
▁compassion	-12.3749
▁reflection	-12.3749
▁intrigued	-12.375
▁belongings	-12.375
▁streamers	-12.375
▁driveway	-12.375
▁Mother	-12.375
▁Birdy	-12.3751
▁twisty	-12.3754
▁base	-12.3754
▁stopping	-12.3754
▁twinkled	-12.3756
▁sewed	-12.3756
ily	-12.3759
▁suffered	-12.3759
▁whispering	-12.3764
▁lending	-12.3768
▁trott	-12.377
▁grandparents	-12.3773
▁performing	-12.3774
▁designed	-12.3777
▁mailed	-12.38
led	-12.3806
▁gardener	-12.3885
F	-12.3893
D	-12.3906
▁sled	-12.3907
▁shoo	-12.3937
Bun	-12.3957
ies	-12.3959
▁talks	-12.397
▁P	-12.397
▁Fido	-12.3977
▁Riley	-12.3977
▁Ryan	-12.3977
▁fantastic	-12.3977
▁oatmeal	-12.3977
▁playroom	-12.3977
▁ponies	-12.3977
▁probably	-12.3977
▁rotten	-12.3977
▁cosy	-12.3977
▁Outside	-12.3977
▁address	-12.3977
▁grand	-12.3977
▁punishment	-12.3977
▁suggestion	-12.3977
▁coach	-12.3977
▁Gabby	-12.3978
▁Tuna	-12.3978
▁Love	-12.398
▁wider	-12.3983
▁Momma	-12.3984
▁trembled	-12.3987
▁goodies	-12.3987
▁surrendered	-12.3996
▁quarreling	-12.3998
▁calmly	-12.4
▁whispers	-12.4003
▁dollars	-12.4009
▁fins	-12.4019
▁loops	-12.4039
▁drivers	-12.4048
ling	-12.4094
▁races	-12.4116
▁joining	-12.4122
E	-12.4122
▁cleaner	-12.4128
▁results	-12.4131
▁pad	-12.4137
way	-12.4159
▁beautifully	-12.4166
▁diamonds	-12.42
▁Jan	-12.4207
ther	-12.4207
▁Maisy	-12.4209
▁Meanwhile	-12.4209
▁Michael	-12.4209
▁Peggy	-12.4209
▁cherish	-12.4209
▁mermaid	-12.4209
▁response	-12.4209
▁slither	-12.4209
▁tissue	-12.4209
▁waterfall	-12.4209
▁Pandy	-12.4209
▁compare	-12.4209
▁tying	-12.4209
▁Nana	-12.4209
▁Frankie	-12.4209
▁gap	-12.421
▁connected	-12.4211
▁napping	-12.4211
▁forgiveness	-12.4212
▁foxes	-12.4217
▁statues	-12.4219
▁appreciated	-12.4225
▁colder	-12.4231
▁performed	-12.4235
▁shirts	-12.4243
▁risks	-12.4259
▁camel	-12.426
▁novels	-12.4282
▁co	-12.4343
▁puppet	-12.4376
▁belts	-12.4403
▁sp	-12.4405
▁roars	-12.4411
Y	-12.4427
Listen	-12.4428
▁scra	-12.4428
id	-12.4434
ighting	-12.4435
▁buzz	-12.4439
rust	-12.4447
▁Tess	-12.4447
▁Becky	-12.4447
▁Ginger	-12.4447
▁Still	-12.4447
▁annoyed	-12.4447
▁anticipation	-12.4447
▁appreciation	-12.4447
▁certain	-12.4447
▁elbow	-12.4447
▁encouraging	-12.4447
▁screwdriver	-12.4447
▁syrup	-12.4447
▁Up	-12.4447
▁Meg	-12.4447
▁Joanna	-12.4447
▁swimmer	-12.4447
▁postman	-12.4447
▁Louise	-12.4448
▁waddled	-12.4449
▁guide	-12.4451
▁sniffing	-12.4452
▁scored	-12.4463
▁cloudy	-12.4463
mbled	-12.4468
▁roses	-12.4487
▁rainy	-12.4493
▁seashells	-12.4514
▁bows	-12.4542
▁leads	-12.4544
▁patt	-12.4583
▁aside	-12.4583
▁spills	-12.4585
ad	-12.4594
▁conversation	-12.4618
▁swimsuit	-12.4619
▁swans	-12.4659
found	-12.4672
Sue	-12.4675
spit	-12.4676
▁erase	-12.4687
▁nibble	-12.4687
▁Fuzz	-12.469
▁Under	-12.4691
▁believing	-12.4691
▁changing	-12.4691
▁concert	-12.4691
▁gesture	-12.4691
▁increasing	-12.4691
▁preparing	-12.4691
▁shady	-12.4691
▁heartbroken	-12.4691
▁tipped	-12.4692
▁Yesterday	-12.4692
▁weeds	-12.47
▁sweetest	-12.4701
▁pedaled	-12.4701
▁suffering	-12.4703
▁reversed	-12.471
▁smallest	-12.4723
▁bravest	-12.4727
▁students	-12.474
top	-12.4749
am	-12.4759
he	-12.4799
the	-12.486
time	-12.4861
ered	-12.4869
ier	-12.4885
▁officers	-12.4896
ded	-12.4921
Mine	-12.4921
king	-12.4924
▁munch	-12.4937
▁untie	-12.4937
▁stumble	-12.4937
▁firm	-12.494
▁swollen	-12.4941
▁Nancy	-12.4941
▁straw	-12.4941
▁Patty	-12.4941
▁permitted	-12.4941
▁pepperoni	-12.4941
▁batteries	-12.4941
▁reassured	-12.4942
▁Ali	-12.4947
▁meowing	-12.4948
▁worrying	-12.4967
▁respected	-12.4995
▁blocked	-12.5004
cal	-12.5075
▁dances	-12.5083
▁seashell	-12.5127
▁flip	-12.5127
▁toward	-12.5128
ying	-12.5163
Bob	-12.5178
Fluffy	-12.5178
▁squeak	-12.5193
▁tidie	-12.5197
▁paintbrush	-12.5197
▁blond	-12.5198
▁quilt	-12.5198
▁skunk	-12.5198
▁spooky	-12.5198
▁wiggly	-12.5198
▁anger	-12.5198
▁discoveries	-12.5198
▁stall	-12.5198
▁million	-12.5198
▁firmly	-12.5199
▁smashed	-12.5199
▁Snap	-12.52
▁damaged	-12.5203
▁soapy	-12.5209
▁delayed	-12.5214
▁crashing	-12.5219
▁cheers	-12.5231
▁speeding	-12.5231
▁gears	-12.5244
▁biting	-12.5244
▁planting	-12.5291
ah	-12.5297
▁efforts	-12.5378
ap	-12.5403
▁zebras	-12.5405
▁insist	-12.5453
▁Jennie	-12.5461
▁Josie	-12.5461
▁Olivia	-12.5461
▁canvas	-12.5461
▁conductor	-12.5461
▁imagina	-12.5461
▁inspired	-12.5461
▁nuzzle	-12.5461
▁veggies	-12.5461
▁spat	-12.5461
▁chin	-12.5461
▁Janie	-12.5461
▁panicked	-12.5461
▁awful	-12.5462
▁yum	-12.5463
▁Zoey	-12.5464
▁woof	-12.5465
ul	-12.5473
▁frowning	-12.5473
▁surfing	-12.5475
▁uniforms	-12.5478
▁clearly	-12.5478
▁discussing	-12.5479
▁fishes	-12.5481
▁beating	-12.5482
œOkay	-12.5488
▁months	-12.55
▁shaped	-12.5509
▁cleared	-12.5512
▁purrs	-12.5521
▁brushing	-12.5522
▁breathing	-12.5528
▁passports	-12.5545
▁watering	-12.5551
▁picnics	-12.5592
▁maker	-12.5605
el	-12.5656
▁alien	-12.5659
▁type	-12.5659
▁material	-12.566
tumbled	-12.5672
▁occasion	-12.5673
▁Star	-12.5692
▁cuddles	-12.5696
Mr	-12.5712
▁admiration	-12.5731
▁footsteps	-12.5731
▁globe	-12.5731
▁grandfather	-12.5731
▁rinse	-12.5731
▁sprout	-12.5731
▁squeezing	-12.5731
▁toolbox	-12.5731
▁artwork	-12.5731
▁reunited	-12.5731
▁Pepper	-12.5732
▁Feel	-12.5733
▁convinced	-12.5734
▁doorway	-12.5736
▁Baa	-12.5739
œHey	-12.5748
Ver	-12.5749
▁fits	-12.575
▁angels	-12.5751
▁experienced	-12.5751
▁gasp	-12.577
▁wisely	-12.5775
op	-12.5793
▁members	-12.5795
▁pl	-12.5797
▁puzzled	-12.5803
▁tidying	-12.5808
▁smelling	-12.5821
▁shops	-12.5821
one	-12.5826
▁treated	-12.5833
▁soaking	-12.5835
▁mints	-12.5835
ssed	-12.5838
▁exercises	-12.5845
▁ties	-12.5855
▁suits	-12.5886
us	-12.5937
▁duckling	-12.5939
▁pose	-12.5941
▁judges	-12.5954
W	-12.5976
▁sails	-12.5985
▁dangers	-12.5986
▁necklaces	-12.599
▁bells	-12.5993
▁Fire	-12.5997
▁grant	-12.6005
▁Hoot	-12.6009
▁10	-12.6009
Surprise	-12.6009
▁Izzy	-12.6009
▁Mamma	-12.6009
▁Super	-12.6009
▁ankle	-12.6009
▁evil	-12.6009
▁extraordinary	-12.6009
▁garbage	-12.6009
▁heaven	-12.6009
▁jogger	-12.6009
▁nasty	-12.6009
▁opposite	-12.6009
▁shrunk	-12.6009
▁solving	-12.6009
▁pleaded	-12.6009
▁mommies	-12.6009
▁Ever	-12.6009
▁chilly	-12.6009
▁rays	-12.6009
▁desp	-12.601
▁accomplished	-12.601
▁shave	-12.601
▁sternly	-12.6011
▁spy	-12.6011
▁swayed	-12.6011
▁tweet	-12.6012
▁rotting	-12.6012
▁squeaked	-12.6013
▁munching	-12.6013
▁sewing	-12.6018
œWhere	-12.6019
▁blinking	-12.6019
▁honking	-12.6019
▁banged	-12.6023
▁bandages	-12.6035
▁R	-12.604
▁guessing	-12.6041
▁sparks	-12.6051
▁trusting	-12.6064
z	-12.6119
▁magazines	-12.6161
▁kings	-12.6249
▁seals	-12.627
Lucy	-12.6274
vroom	-12.6275
but	-12.6275
▁crunch	-12.6294
▁wealth	-12.6294
▁sill	-12.6294
▁Bruce	-12.6295
▁Halloween	-12.6295
▁Stella	-12.6295
▁bamboo	-12.6295
▁chipmunk	-12.6295
▁emerged	-12.6295
▁environment	-12.6295
▁generosity	-12.6295
▁scrub	-12.6295
▁cocoon	-12.6295
▁masterpiece	-12.6295
▁scent	-12.6295
▁Terry	-12.6295
▁laptop	-12.6295
▁flipped	-12.6295
▁Zee	-12.6295
▁Excitedly	-12.6296
Dear	-12.6296
▁responded	-12.6296
▁whoosh	-12.6297
▁nibbled	-12.6299
H	-12.6299
▁Rain	-12.6301
▁manners	-12.6306
▁obeyed	-12.6308
▁comforting	-12.6324
œBut	-12.6325
▁packages	-12.6327
nother	-12.6328
▁chip	-12.633
im	-12.6349
▁customers	-12.6356
▁stays	-12.6366
▁pigeons	-12.6371
▁dressing	-12.6376
▁travels	-12.6376
ure	-12.6392
▁vehicles	-12.6397
ha	-12.6432
So	-12.6441
▁prayers	-12.6482
choo	-12.6487
▁fact	-12.6514
ig	-12.6525
▁al	-12.6527
▁within	-12.6527
▁simpl	-12.6549
Quick	-12.6569
Watch	-12.6569
▁focus	-12.6585
▁attack	-12.6585
▁counts	-12.6586
▁riddle	-12.6589
▁Flora	-12.6589
▁Jason	-12.6589
▁bride	-12.6589
▁confidence	-12.6589
▁donkey	-12.6589
▁exchange	-12.6589
▁exploration	-12.6589
▁forgiving	-12.6589
▁natural	-12.6589
▁paddling	-12.6589
▁unload	-12.6589
▁sunscreen	-12.6589
▁encouragement	-12.6589
▁Jonny	-12.6589
▁afar	-12.6589
▁Speedy	-12.6589
▁wrinkled	-12.6589
▁Jon	-12.659
▁mood	-12.6591
▁Ana	-12.6592
▁glittering	-12.6597
▁container	-12.6598
▁peeled	-12.66
▁burying	-12.6607
▁Me	-12.6611
▁pinching	-12.6615
▁hops	-12.6624
sh	-12.6624
▁movements	-12.6635
▁Ver	-12.6658
▁Welcome	-12.6673
▁freed	-12.6691
▁cubes	-12.6751
œThe	-12.6783
ish	-12.679
▁knots	-12.6798
da	-12.681
▁conflict	-12.6818
▁member	-12.6821
▁cupcake	-12.6822
▁''	-12.6852
▁brains	-12.6877
ring	-12.688
Goodnight	-12.6892
▁Freddie	-12.6892
▁Libby	-12.6892
▁compete	-12.6892
▁crouch	-12.6892
▁groom	-12.6892
▁hairdresser	-12.6892
▁hamster	-12.6892
▁Snowman	-12.6892
▁Startled	-12.6892
▁nodding	-12.6892
▁lipstick	-12.6892
▁sadder	-12.6892
▁Sofia	-12.6893
▁Finny	-12.6893
▁recorder	-12.6895
▁germs	-12.6897
▁Dory	-12.6899
▁shallow	-12.6902
▁tighter	-12.6908
▁repeating	-12.6909
▁bruises	-12.6921
▁leapt	-12.6922
▁thorns	-12.6926
▁lasers	-12.6931
Boys	-12.6944
▁jars	-12.6968
▁mattered	-12.6988
▁beam	-12.7002
▁shovels	-12.7016
▁la	-12.7018
▁crowns	-12.7019
▁nests	-12.7046
ky	-12.705
▁promises	-12.7072
▁aim	-12.7089
hi	-12.7092
▁sheets	-12.711
▁purr	-12.7125
▁stain	-12.7128
▁burger	-12.7132
▁snatch	-12.714
▁force	-12.7162
what	-12.7185
▁doves	-12.7197
▁self	-12.7204
▁Elsie	-12.7204
▁Ruth	-12.7204
▁Summer	-12.7204
▁applause	-12.7204
▁bouquet	-12.7204
▁closing	-12.7204
▁cottage	-12.7204
▁court	-12.7204
▁freezing	-12.7204
▁observing	-12.7204
▁stethoscope	-12.7204
▁windowsill	-12.7204
▁Quackers	-12.7204
▁dump	-12.7204
▁dripping	-12.7204
▁Auntie	-12.7204
▁luckily	-12.7204
▁Gracie	-12.7205
▁exploded	-12.7206
▁rely	-12.7207
œSee	-12.721
▁Try	-12.7213
▁Vroom	-12.7217
▁decisions	-12.7223
▁snaps	-12.7223
▁leaking	-12.7231
▁unpacking	-12.7233
▁snowy	-12.7235
œMaybe	-12.7238
▁tearing	-12.724
▁designing	-12.7244
▁combed	-12.7246
▁instruments	-12.726
▁clues	-12.7262
▁kittens	-12.7269
▁streets	-12.7278
▁parted	-12.7294
▁lo	-12.7327
▁textures	-12.7342
ge	-12.7347
▁languages	-12.7349
▁seagulls	-12.7358
▁signing	-12.7364
▁outfits	-12.7365
▁spells	-12.7407
▁bleed	-12.745
▁ramp	-12.7453
▁aisle	-12.7453
▁frowns	-12.7453
is	-12.7502
Get	-12.7507
For	-12.7508
▁winding	-12.751
▁Prince	-12.7526
▁except	-12.7527
▁Buggy	-12.7527
▁Fortunately	-12.7527
▁Jasmine	-12.7527
▁Kevin	-12.7527
▁Lenny	-12.7527
▁Samantha	-12.7527
▁classmates	-12.7527
▁compliment	-12.7527
▁congratulate	-12.7527
▁cotton	-12.7527
▁declared	-12.7527
▁lumberjack	-12.7527
▁scarecrow	-12.7527
▁temptation	-12.7527
▁toothbrush	-12.7527
▁Megan	-12.7527
▁Hootie	-12.7527
▁Patches	-12.7527
▁apologised	-12.7527
▁Ray	-12.7527
▁sweaty	-12.7527
▁snapping	-12.7527
▁dash	-12.7527
▁tires	-12.7528
▁cafe	-12.7528
▁Us	-12.7528
▁stretches	-12.7528
▁failed	-12.7528
▁Twinkle	-12.7529
▁shorter	-12.753
▁Lion	-12.753
▁Say	-12.7532
▁wiser	-12.7538
▁rowed	-12.7542
▁bothered	-12.7554
▁stamped	-12.7561
▁beeped	-12.7565
▁pandas	-12.7565
▁traveling	-12.7571
▁astronauts	-12.7582
▁scores	-12.7603
▁chocolates	-12.7618
ked	-12.7627
▁digs	-12.763
▁da	-12.765
▁sirens	-12.7684
œWho	-12.7709
▁explains	-12.7734
car	-12.7745
▁carrie	-12.7749
pe	-12.7776
▁understands	-12.7781
▁risk	-12.7788
▁customer	-12.7789
▁changes	-12.78
Tak	-12.7807
▁cracks	-12.7827
▁shall	-12.7848
▁pins	-12.7854
▁repeats	-12.7854
▁Brian	-12.786
▁Bobbie	-12.786
▁activity	-12.786
▁enemy	-12.786
▁purpose	-12.786
▁seatbelt	-12.786
▁wheelbarrow	-12.786
▁papa	-12.786
▁pump	-12.786
▁tasting	-12.786
▁Paw	-12.786
▁drowned	-12.7861
▁Again	-12.7862
▁Martin	-12.7862
▁squished	-12.7862
▁croaked	-12.7863
▁Birdie	-12.7863
▁yelped	-12.7863
▁buses	-12.7864
▁aware	-12.7865
▁Duck	-12.7865
▁steering	-12.7867
▁expecting	-12.787
▁hooks	-12.7871
▁flashing	-12.7872
▁hunting	-12.7874
▁Honey	-12.7874
▁disturbing	-12.7875
▁brightest	-12.7879
war	-12.7879
▁tables	-12.788
▁choo	-12.7882
my	-12.7894
▁relaxing	-12.7901
▁joked	-12.7922
▁computers	-12.7927
▁grip	-12.7939
An	-12.7943
ne	-12.7964
iest	-12.7969
▁tablet	-12.8028
▁adds	-12.8077
▁lies	-12.8097
ive	-12.811
▁tubes	-12.815
five	-12.8183
Too	-12.8185
ment	-12.8187
ould	-12.8197
œGood	-12.8202
▁list	-12.8205
▁Jonathan	-12.8205
▁Pearl	-12.8205
▁argument	-12.8205
▁beaver	-12.8205
▁binoculars	-12.8205
▁communicate	-12.8205
▁companion	-12.8205
▁glide	-12.8205
▁grandchild	-12.8205
▁Andrew	-12.8205
▁Ashley	-12.8205
▁inchworm	-12.8205
▁raising	-12.8205
▁Eric	-12.8205
▁riverbank	-12.8205
▁Patch	-12.8205
▁theatre	-12.8205
▁business	-12.8205
▁bond	-12.8205
▁terrified	-12.8205
▁shimmering	-12.8205
▁prickly	-12.8206
▁Puppy	-12.8206
▁stepping	-12.8206
▁conquered	-12.8206
▁tilted	-12.8207
▁deed	-12.8208
▁embarrassing	-12.8208
▁blown	-12.8209
▁untied	-12.821
▁films	-12.8211
▁winking	-12.8216
▁Ami	-12.8216
▁Moo	-12.8216
▁Isn	-12.8219
▁applauding	-12.8223
▁cheerfully	-12.8228
▁petting	-12.823
wi	-12.8232
œSure	-12.8239
▁giggles	-12.8242
▁knocking	-12.8245
▁scooters	-12.8249
▁Only	-12.827
ened	-12.8273
▁checking	-12.8277
▁stored	-12.8301
▁forts	-12.8315
▁visitors	-12.8322
▁darlings	-12.8348
▁Doug	-12.8368
▁w	-12.8368
all	-12.838
ipped	-12.84
▁loses	-12.8424
▁beetles	-12.8435
▁sprays	-12.8466
▁flaps	-12.8476
▁scold	-12.8482
▁sh	-12.8488
▁battle	-12.8489
▁student	-12.8491
▁Roo	-12.8521
ine	-12.8531
▁scurry	-12.854
low	-12.8541
Sally	-12.8543
?!"	-12.8557
▁Jet	-12.8562
▁Mila	-12.8562
▁Nathan	-12.8562
▁Pippa	-12.8562
▁Rani	-12.8562
▁Rita	-12.8562
▁chili	-12.8562
▁clerk	-12.8562
▁experiment	-12.8562
▁grandbaby	-12.8562
▁gratitude	-12.8562
▁humming	-12.8562
▁mischievous	-12.8562
▁rescuing	-12.8562
▁townspeople	-12.8562
▁ill	-12.8562
▁expression	-12.8562
▁rumbling	-12.8562
▁CD	-12.8562
▁active	-12.8562
▁Rudolph	-12.8562
▁Smokey	-12.8563
▁matey	-12.8563
▁pouch	-12.8563
▁Mae	-12.8564
▁bluebird	-12.8564
▁Right	-12.8566
▁joyfully	-12.8566
▁beaming	-12.8567
▁peak	-12.8569
▁glittered	-12.8572
▁Lot	-12.8572
▁calmer	-12.8573
▁forgiven	-12.8574
▁quieter	-12.8581
▁questioned	-12.8611
All	-12.8631
G	-12.864
▁crocodiles	-12.8642
fully	-12.8643
▁thumbs	-12.8645
ay	-12.8662
▁bracelets	-12.8663
▁fleas	-12.8671
▁Ha	-12.8675
▁Dee	-12.8681
▁answering	-12.8682
▁robbers	-12.8684
▁b	-12.8701
ma	-12.8706
▁wounds	-12.8723
ent	-12.8725
▁hoops	-12.8761
▁storms	-12.8777
▁shorts	-12.8782
▁grows	-12.8792
▁singers	-12.8805
▁vests	-12.8846
▁hu	-12.8848
▁curl	-12.8855
▁decoration	-12.8862
▁bounces	-12.8871
ue	-12.8872
K	-12.8912
▁strok	-12.8916
U	-12.8923
▁stroll	-12.8924
▁hike	-12.8929
R	-12.893
▁pol	-12.893
▁surprising	-12.8931
▁attract	-12.8932
▁Albert	-12.8932
▁Chuck	-12.8932
▁Jean	-12.8932
▁Kiki	-12.8932
▁Spanish	-12.8932
▁apology	-12.8932
▁bubbly	-12.8932
▁doorbell	-12.8932
▁energetic	-12.8932
▁expert	-12.8932
▁faint	-12.8932
▁fascinating	-12.8932
▁overhead	-12.8932
▁supplied	-12.8932
▁teapot	-12.8932
▁welcoming	-12.8932
▁snug	-12.8932
▁unfortunately	-12.8932
▁bitten	-12.8932
▁soothing	-12.8933
▁skies	-12.8933
▁appearance	-12.8933
▁grumbled	-12.8933
▁mosquitoes	-12.8934
▁squeaky	-12.8934
▁manager	-12.8935
▁swaying	-12.8936
▁spilling	-12.8945
▁flashed	-12.8946
▁clicked	-12.8947
▁messes	-12.8948
ic	-12.8952
▁floats	-12.8954
▁awhile	-12.8958
▁offering	-12.8965
▁spra	-12.897
▁supported	-12.8975
▁kayaking	-12.8976
▁levers	-12.8977
▁returning	-12.8982
▁Mo	-12.8983
▁sandy	-12.8984
▁scolds	-12.9007
▁poses	-12.9029
▁cowboys	-12.9056
▁plug	-12.9065
▁traps	-12.9087
▁introduc	-12.909
▁treasured	-12.9126
▁scares	-12.9166
▁rats	-12.9176
▁fin	-12.9184
▁p	-12.9191
▁strokes	-12.9195
of	-12.9211
▁queens	-12.9217
▁robots	-12.9221
▁troubles	-12.9227
▁lizards	-12.9228
▁nurses	-12.9237
▁height	-12.9244
▁clue	-12.9246
ate	-12.9247
▁Flo	-12.9267
▁Win	-12.9286
by	-12.9293
Stay	-12.9298
please	-12.9298
Billy	-12.9298
▁crawls	-12.9301
▁depend	-12.931
▁sweep	-12.9313
▁glimmer	-12.9313
▁convince	-12.9313
▁fade	-12.9313
▁drip	-12.9317
▁Ava	-12.9317
▁Immediately	-12.9317
▁Patrick	-12.9317
▁annoying	-12.9317
▁buddy	-12.9317
▁discouraged	-12.9317
▁disobey	-12.9317
▁gazing	-12.9317
▁gliding	-12.9317
▁improving	-12.9317
▁ketchup	-12.9317
▁miracle	-12.9317
▁pounce	-12.9317
▁preschool	-12.9317
▁responsibility	-12.9317
▁routine	-12.9317
▁wildflowers	-12.9317
▁hood	-12.9317
▁plumber	-12.9317
▁choosing	-12.9317
▁wig	-12.9317
▁Mona	-12.9317
Alright	-12.9317
▁baa	-12.9317
▁announced	-12.9317
▁instantly	-12.9318
▁Toto	-12.9318
▁Thankfully	-12.9318
▁Monkey	-12.9319
▁checkout	-12.9319
▁ashes	-12.932
▁flowing	-12.932
▁Steven	-12.932
▁Matty	-12.932
▁cheated	-12.9321
▁Oink	-12.9321
▁cheaper	-12.9323
▁formed	-12.9323
▁napped	-12.9323
▁finishes	-12.9323
▁Okay	-12.9323
▁figures	-12.9324
▁kit	-12.9325
▁pedaling	-12.9333
œPlease	-12.9334
▁turtles	-12.9334
▁Quick	-12.9342
▁tips	-12.9361
▁otters	-12.9379
▁orders	-12.9385
▁tickl	-12.939
▁testing	-12.9407
man	-12.9413
ation	-12.9434
▁necks	-12.9476
ged	-12.9495
ot	-12.9501
ough	-12.9528
▁fl	-12.9529
▁Eat	-12.9541
▁burns	-12.9553
py	-12.9583
ning	-12.9624
▁instrument	-12.9646
▁goats	-12.9666
▁leap	-12.9669
▁sometime	-12.9673
▁pizzas	-12.9691
ist	-12.9692
Deal	-12.9697
Jill	-12.9698
▁swallow	-12.9713
▁survive	-12.9713
▁whales	-12.9715
▁Excited	-12.9716
▁proper	-12.9716
▁chill	-12.9716
▁lump	-12.9716
Ã	-12.9717
▁Bounce	-12.9717
▁Carefully	-12.9717
▁Melissa	-12.9717
▁Oak	-12.9717
▁Sasha	-12.9717
▁Tiger	-12.9717
▁Trina	-12.9717
▁embrace	-12.9717
▁gallop	-12.9717
▁granddaughter	-12.9717
▁harmony	-12.9717
▁juggling	-12.9717
▁melody	-12.9717
▁odd	-12.9717
▁saxophone	-12.9717
▁smelt	-12.9717
▁squirt	-12.9717
▁tortoise	-12.9717
▁tricycle	-12.9717
▁launch	-12.9717
▁foam	-12.9717
▁grain	-12.9717
▁clutch	-12.9717
▁Down	-12.9717
▁carriage	-12.9717
▁JoJo	-12.9717
▁dial	-12.9717
▁hoot	-12.9717
▁roast	-12.9717
▁Bow	-12.9717
▁Nate	-12.9718
▁whined	-12.9721
▁Alexa	-12.9722
▁birdhouse	-12.9723
▁writer	-12.9729
▁details	-12.9736
▁dryer	-12.9736
▁scratching	-12.9744
ity	-12.9745
▁fires	-12.9756
▁whistles	-12.9759
▁hardest	-12.9759
▁switched	-12.9766
▁characters	-12.9768
▁messages	-12.9771
▁Dove	-12.9812
▁Ready	-12.9816
▁rocky	-12.9819
▁labels	-12.9823
▁gasps	-12.9823
▁bowing	-12.9848
▁breaths	-12.9849
▁drying	-12.9918
▁Sh	-12.9948
▁honks	-12.998
▁rewards	-12.9985
ow	-13.0028
ous	-13.0031
▁Hi	-13.0033
▁boards	-13.0036
▁listener	-13.0045
▁target	-13.0061
▁astronaut	-13.0063
work	-13.0067
▁tunes	-13.007
▁burnt	-13.0089
▁Ma	-13.0095
light	-13.0106
x	-13.0113
Choo	-13.0114
Beep	-13.0114
▁cheat	-13.0125
▁defeat	-13.013
▁juggle	-13.013
j	-13.0131
▁knit	-13.0133
▁Greg	-13.0134
▁Peep	-13.0134
Arrr	-13.0134
▁glared	-13.0134
▁icky	-13.0134
▁meatballs	-13.0134
▁pleasant	-13.0134
▁prank	-13.0134
▁underwater	-13.0134
▁Clare	-13.0134
▁blame	-13.0134
▁spare	-13.0134
▁Catty	-13.0134
▁Helen	-13.0134
▁Leah	-13.0134
▁moat	-13.0134
▁peeped	-13.0134
▁Rosa	-13.0134
▁positive	-13.0134
▁floppy	-13.0134
▁correctly	-13.0134
▁slipping	-13.0134
▁Pup	-13.0134
▁slapping	-13.0134
▁squinted	-13.0135
▁stirs	-13.0135
▁collapsed	-13.0135
Hmm	-13.0135
▁mayor	-13.0136
▁wriggled	-13.0136
▁glistening	-13.0137
▁Wisdom	-13.0137
▁blushed	-13.0137
▁passes	-13.0137
▁defeated	-13.0138
▁Pink	-13.0138
▁dodged	-13.0139
▁attacked	-13.014
▁hum	-13.0141
▁suck	-13.0143
▁benches	-13.0143
▁peas	-13.0166
▁Mine	-13.0167
▁unlocking	-13.0178
▁blades	-13.0184
▁airplanes	-13.0229
▁sweetly	-13.0257
▁umbrellas	-13.0268
▁dears	-13.0304
ccidents	-13.0307
▁differently	-13.0336
▁surely	-13.0344
▁opinions	-13.0373
aw	-13.0401
▁zooms	-13.0416
▁visits	-13.0422
▁Bea	-13.0423
ip	-13.0434
ok	-13.0459
▁whine	-13.0492
▁racer	-13.0517
Re	-13.0529
▁Of	-13.0544
Tweet	-13.0549
▁sway	-13.0563
▁impress	-13.0564
▁pout	-13.0565
po	-13.0565
▁cautious	-13.0567
▁Jelly	-13.0568
▁Bouncy	-13.0569
▁Buster	-13.0569
▁Duke	-13.0569
▁Eddie	-13.0569
▁Kaitlyn	-13.0569
▁Penelope	-13.0569
▁Ricky	-13.0569
▁Roy	-13.0569
▁Rufus	-13.0569
▁Sabrina	-13.0569
▁Shannon	-13.0569
▁blob	-13.0569
▁bomb	-13.0569
▁compromise	-13.0569
▁exercising	-13.0569
▁hundred	-13.0569
▁magnif	-13.0569
▁opportunity	-13.0569
▁overwhelmed	-13.0569
▁postcard	-13.0569
▁satisfaction	-13.0569
▁serving	-13.0569
▁smoking	-13.0569
▁worst	-13.0569
▁beast	-13.0569
▁playdate	-13.0569
▁stew	-13.0569
▁tummies	-13.0569
▁Caroline	-13.0569
▁noticing	-13.0569
▁electricity	-13.0569
▁scenery	-13.0569
▁plow	-13.0569
▁hotter	-13.0569
▁poisonous	-13.0569
▁countries	-13.0569
▁behaviour	-13.0569
▁inches	-13.0569
▁badger	-13.057
▁bundle	-13.057
▁practised	-13.057
▁Carla	-13.057
▁protection	-13.057
▁roamed	-13.0571
▁thump	-13.0572
▁dodge	-13.0572
▁Sweet	-13.0572
▁Carly	-13.0573
▁glimmering	-13.0573
▁Sun	-13.0576
▁Claus	-13.0577
▁Pick	-13.0577
▁miller	-13.0577
▁ch	-13.0579
œHow	-13.0579
do	-13.058
▁Sleep	-13.0581
▁surfer	-13.0586
▁pounds	-13.0586
▁crops	-13.0589
▁Jackie	-13.0605
▁rains	-13.062
▁guarding	-13.0627
▁moo	-13.063
▁crafts	-13.0631
run	-13.0635
▁cops	-13.064
▁Yum	-13.0654
ny	-13.0673
▁guards	-13.0681
Got	-13.0697
▁sleds	-13.0708
bo	-13.0776
▁zookeepers	-13.0783
In	-13.0785
▁teams	-13.0814
ear	-13.0817
▁jobs	-13.0908
ned	-13.0938
▁provid	-13.0951
▁claw	-13.0954
▁movement	-13.0955
▁haircuts	-13.0957
▁Ostrich	-13.096
▁backpacks	-13.096
be	-13.0974
▁pipes	-13.098
▁flick	-13.0996
Honey	-13.1003
Someone	-13.1004
shirt	-13.1004
Soon	-13.1004
Once	-13.1004
Molly	-13.1004
N	-13.101
▁puff	-13.1013
▁crystals	-13.102
▁o	-13.102
▁blur	-13.1023
▁popsicle	-13.1023
▁whizz	-13.1023
▁Alicia	-13.1023
▁Angie	-13.1023
▁Carrie	-13.1023
▁Flutter	-13.1023
▁Mina	-13.1023
▁ability	-13.1023
▁born	-13.1023
▁common	-13.1023
▁condition	-13.1023
▁cuddling	-13.1023
▁current	-13.1023
▁gorgeous	-13.1023
▁heavily	-13.1023
▁hollow	-13.1023
▁hummed	-13.1023
▁injured	-13.1023
▁presence	-13.1023
▁property	-13.1023
▁shrank	-13.1023
▁trigger	-13.1023
▁unfamiliar	-13.1023
▁amused	-13.1023
▁icing	-13.1023
▁pantry	-13.1023
▁Joanne	-13.1023
▁robin	-13.1023
▁Things	-13.1023
▁hover	-13.1023
▁shattered	-13.1023
▁Robin	-13.1024
▁Land	-13.1024
▁springtime	-13.1024
▁bullies	-13.1024
▁flock	-13.1025
▁killed	-13.1025
▁Cheese	-13.1025
▁4	-13.1026
œOk	-13.1026
▁snorted	-13.1027
▁Tree	-13.1028
▁hunger	-13.1029
▁Was	-13.1029
▁tentacles	-13.1031
▁larger	-13.1034
œBe	-13.1036
▁coughed	-13.1037
▁speaker	-13.1038
▁Quack	-13.104
▁coolest	-13.1043
▁Beep	-13.1045
▁Deal	-13.1046
▁honesty	-13.1049
▁sincere	-13.1053
▁traded	-13.1057
▁sweeter	-13.1061
side	-13.1067
▁stuffing	-13.1078
▁tin	-13.1086
▁pre	-13.1091
▁goodness	-13.1104
▁chews	-13.1109
▁aboard	-13.1129
œA	-13.1136
▁unwrapp	-13.1146
▁types	-13.1146
hich	-13.1153
ally	-13.1154
▁fishy	-13.1181
▁swirls	-13.1197
▁meaning	-13.1197
▁zips	-13.1216
▁scrap	-13.1219
▁de	-13.1295
▁cages	-13.1295
▁bats	-13.1296
▁tickles	-13.131
▁heels	-13.1348
▁nightmares	-13.1358
▁tr	-13.1368
▁tick	-13.139
▁suggest	-13.1422
▁ships	-13.1427
▁month	-13.1428
▁Whee	-13.1434
red	-13.1443
▁faith	-13.1446
▁drag	-13.1448
ball	-13.1479
Vroom	-13.148
Keep	-13.148
Jimmy	-13.148
Benny	-13.1481
tock	-13.1491
▁embarrass	-13.1491
▁yelp	-13.1495
▁venture	-13.1495
▁fond	-13.1498
▁Scott	-13.1498
▁Lou	-13.1499
▁whisk	-13.1499
▁Carol	-13.1499
Ahoy	-13.1499
▁Buttons	-13.1499
▁Ernie	-13.1499
▁Girl	-13.1499
▁Hank	-13.1499
▁Kathy	-13.1499
▁Rory	-13.1499
▁Sandra	-13.1499
▁Stacy	-13.1499
▁aloud	-13.1499
▁aroma	-13.1499
▁attitude	-13.1499
▁bolt	-13.1499
▁encounter	-13.1499
▁peacock	-13.1499
▁striking	-13.1499
▁tempting	-13.1499
▁woodpecker	-13.1499
Anything	-13.1499
▁lush	-13.1499
▁twelve	-13.1499
▁Turtle	-13.1499
▁Tia	-13.1499
▁recommendation	-13.1499
▁alley	-13.1499
▁rebuild	-13.15
▁enchant	-13.15
▁whimpered	-13.15
▁alongside	-13.15
▁ladybird	-13.1501
▁Oliver	-13.1502
▁untangled	-13.1502
Jump	-13.1502
▁Share	-13.1502
▁reappeared	-13.1503
▁silently	-13.1503
▁peacefulness	-13.1505
▁enjoyable	-13.1505
▁earned	-13.1507
▁armor	-13.1507
▁bound	-13.1509
▁weaker	-13.151
▁weapons	-13.1522
leaning	-13.153
Amy	-13.1543
▁sharks	-13.1545
▁engines	-13.1567
▁Ally	-13.158
▁din	-13.1607
▁facts	-13.1618
▁bathing	-13.163
▁minds	-13.1651
▁swat	-13.1663
▁experiences	-13.1664
▁shines	-13.1674
Does	-13.1709
▁g	-13.1709
so	-13.1716
▁rips	-13.1719
ched	-13.1743
▁weighs	-13.1754
▁situations	-13.1775
rch	-13.1793
▁leans	-13.1834
ard	-13.1852
▁pills	-13.1858
▁rows	-13.1907
▁mugs	-13.1917
▁wrapper	-13.1927
▁craft	-13.1929
opped	-13.1935
▁petal	-13.1938
▁invitations	-13.1943
▁chains	-13.1948
▁dollar	-13.1951
Anytime	-13.1979
Never	-13.1981
▁flow	-13.199
Zoom	-13.1997
▁Nan	-13.1999
▁grace	-13.1999
▁blank	-13.1999
▁Chad	-13.1999
▁Colin	-13.1999
▁Felix	-13.1999
▁Heidi	-13.1999
▁Matilda	-13.1999
▁Muffy	-13.1999
▁Rebecca	-13.1999
▁Rudy	-13.1999
▁Saturday	-13.1999
▁Through	-13.1999
▁Zigzag	-13.1999
▁adopt	-13.1999
▁caution	-13.1999
▁cooed	-13.1999
▁depths	-13.1999
▁dumb	-13.1999
▁flush	-13.1999
▁grasshopper	-13.1999
▁guardian	-13.1999
▁hooves	-13.1999
▁incredibly	-13.1999
▁level	-13.1999
▁mysteries	-13.1999
▁otherwise	-13.1999
▁peculiar	-13.1999
▁poppies	-13.1999
▁reversing	-13.1999
▁rubbish	-13.1999
▁salon	-13.1999
▁scrubbing	-13.1999
▁section	-13.1999
▁souvenir	-13.1999
▁sturdy	-13.1999
▁thunderstorm	-13.1999
▁toothpaste	-13.1999
▁woodcutter	-13.1999
▁Maia	-13.1999
▁nanny	-13.1999
▁state	-13.1999
▁Annabelle	-13.1999
▁Sparkle	-13.1999
▁priest	-13.1999
▁Barry	-13.1999
▁Zack	-13.1999
▁achievement	-13.1999
Guess	-13.1999
▁birdseed	-13.1999
▁spies	-13.1999
▁luckiest	-13.2
▁Cara	-13.2
▁chopping	-13.2
▁Alan	-13.2
▁Mel	-13.2
▁Nelly	-13.2
▁flashes	-13.2
▁Year	-13.2
▁bill	-13.2001
▁carton	-13.2001
▁transformed	-13.2001
▁marveled	-13.2001
▁distracted	-13.2002
▁Moon	-13.2005
▁Wake	-13.2006
▁Allie	-13.2007
▁Missy	-13.2008
▁thicker	-13.2009
▁smartest	-13.2013
▁quacking	-13.2019
▁Never	-13.202
▁obediently	-13.203
▁army	-13.2038
▁raked	-13.2038
▁explaining	-13.2049
▁kindest	-13.2055
▁freely	-13.2065
▁Jilly	-13.2087
▁sooner	-13.2103
ddled	-13.2119
▁cupboards	-13.2136
Achoo	-13.2141
▁puppets	-13.2154
ail	-13.2189
can	-13.2215
▁Johny	-13.2216
na	-13.2239
▁winks	-13.2248
▁f	-13.2252
nny	-13.2278
▁cubs	-13.2309
▁desks	-13.2309
▁peels	-13.2344
ley	-13.238
▁h	-13.2383
▁poles	-13.239
cat	-13.2423
ced	-13.2436
▁hoses	-13.244
▁strips	-13.2444
▁mo	-13.2445
▁cracker	-13.2461
▁styles	-13.2463
▁teachers	-13.2468
▁cooled	-13.2476
▁builder	-13.2479
▁Li	-13.249
▁seas	-13.2498
look	-13.2502
Open	-13.2506
Hurry	-13.2506
Quack	-13.2506
colored	-13.2506
Leave	-13.2506
why	-13.2506
▁hangers	-13.2507
Joe	-13.2508
▁lectures	-13.2513
▁reappear	-13.2521
▁snort	-13.2522
▁realise	-13.2522
▁Mick	-13.2525
▁Elle	-13.2525
▁express	-13.2525
▁Alec	-13.2526
▁Bubba	-13.2526
▁Eva	-13.2526
▁Freya	-13.2526
▁Frosty	-13.2526
▁Minnie	-13.2526
▁Tyler	-13.2526
▁calf	-13.2526
▁community	-13.2526
▁dustpan	-13.2526
▁example	-13.2526
▁hesitation	-13.2526
▁intently	-13.2526
▁partner	-13.2526
▁realizing	-13.2526
▁stinky	-13.2526
▁tempted	-13.2526
▁disappointment	-13.2526
▁lens	-13.2526
▁shinier	-13.2526
▁thieves	-13.2526
▁thirty	-13.2526
▁Bonnie	-13.2526
▁workshop	-13.2526
▁Dora	-13.2526
▁healthier	-13.2526
▁Other	-13.2526
▁Greenie	-13.2526
▁repairman	-13.2526
▁popping	-13.2526
▁Volcano	-13.2526
▁shimmered	-13.2526
▁moonlight	-13.2526
▁sniffled	-13.2527
Life	-13.2527
▁Quickly	-13.2527
▁con	-13.2528
▁lunchtime	-13.2528
▁Spider	-13.2528
▁Spring	-13.2528
œMummy	-13.2528
▁guesses	-13.2529
▁glittery	-13.2529
▁Raven	-13.2529
▁purring	-13.2533
▁Tomorrow	-13.2533
▁fries	-13.2538
▁demanding	-13.2542
▁Liam	-13.2545
▁kneeling	-13.2547
Hop	-13.2547
▁leopards	-13.2569
▁disappearing	-13.2572
▁ho	-13.2578
▁spelling	-13.2578
▁rewarding	-13.2578
▁nearer	-13.2582
ears	-13.2586
▁builders	-13.2603
▁Cora	-13.2662
ca	-13.2662
▁aliens	-13.2669
▁Car	-13.2687
▁soundly	-13.2692
▁pads	-13.2692
ved	-13.2696
▁ba	-13.2726
▁Joan	-13.273
hap	-13.2753
▁cells	-13.2786
ance	-13.2793
ink	-13.2796
▁costs	-13.2821
bs	-13.2836
▁pops	-13.2841
▁suitcases	-13.291
▁meadows	-13.2912
▁rails	-13.2925
▁comets	-13.298
▁crumb	-13.299
▁blossom	-13.3008
▁date	-13.3009
▁character	-13.301
▁Sal	-13.3021
▁patients	-13.3039
▁prices	-13.304
Jen	-13.3062
beep	-13.3062
▁croak	-13.3073
▁interest	-13.3073
▁strum	-13.3075
▁charm	-13.3077
▁blush	-13.3077
▁tastie	-13.3081
▁compass	-13.3081
▁zig	-13.3081
▁Charles	-13.3081
▁Fairy	-13.3081
▁Gizmo	-13.3081
▁Marie	-13.3081
▁Mighty	-13.3081
▁Olly	-13.3081
▁Otherwise	-13.3081
▁Phil	-13.3081
▁Velvet	-13.3081
▁Wooly	-13.3081
▁ballerina	-13.3081
▁campsite	-13.3081
▁exhibit	-13.3081
▁foreshadow	-13.3081
▁indoors	-13.3081
▁interrupt	-13.3081
▁keen	-13.3081
▁knives	-13.3081
▁lullaby	-13.3081
▁majestic	-13.3081
▁reckless	-13.3081
▁security	-13.3081
▁snuggling	-13.3081
▁tiring	-13.3081
©	-13.3081
▁Bree	-13.3081
▁Furry	-13.3081
▁Lina	-13.3081
▁Singing	-13.3081
▁fist	-13.3081
Books	-13.3081
▁courageous	-13.3082
▁Fishy	-13.3082
▁disgusted	-13.3082
▁bold	-13.3082
▁lunchbox	-13.3082
iness	-13.3082
▁desperately	-13.3082
▁Billie	-13.3083
▁dozed	-13.3083
▁Sprite	-13.3083
▁vinegar	-13.3083
▁cawed	-13.3085
▁patches	-13.3085
▁clam	-13.3085
▁hatched	-13.3087
▁protector	-13.3087
▁Pizza	-13.3089
▁misty	-13.3091
œYay	-13.3092
▁youngest	-13.3094
▁5	-13.3095
▁hisses	-13.3097
▁avoided	-13.3098
▁rumbled	-13.31
▁challenged	-13.3104
▁freshly	-13.3112
▁dart	-13.3113
▁cutest	-13.3114
▁greatest	-13.3124
▁lookout	-13.3132
▁elders	-13.3133
▁Does	-13.3136
▁Steph	-13.3137
▁longest	-13.3148
▁earn	-13.3151
nce	-13.3152
▁nations	-13.3194
▁gratefully	-13.3207
▁burgers	-13.3212
▁ducklings	-13.3229
Nee	-13.3247
▁kangaroos	-13.3249
▁dent	-13.3277
ye	-13.3322
▁talents	-13.336
▁twists	-13.3388
▁hunters	-13.3389
▁tents	-13.339
▁Tell	-13.3396
▁caterpillars	-13.3406
ave	-13.3412
ew	-13.3419
▁bulbs	-13.3435
▁Fran	-13.3454
og	-13.3544
▁Ms	-13.3575
she	-13.3579
▁V	-13.3586
▁scene	-13.3595
▁blade	-13.3598
▁lever	-13.3611
œThanks	-13.3624
More	-13.3649
Moo	-13.3649
shaped	-13.365
Grandpa	-13.365
ound	-13.365
llowing	-13.3653
▁stomp	-13.3661
▁slam	-13.3662
▁complet	-13.3663
▁ja	-13.3664
▁glisten	-13.3665
▁roam	-13.3665
▁respond	-13.3665
▁desperate	-13.3668
▁Flash	-13.3668
▁narrow	-13.3669
▁Smoke	-13.3669
▁Zac	-13.3669
▁savor	-13.3669
▁April	-13.3669
▁Brad	-13.3669
▁Charlotte	-13.3669
▁Doctor	-13.3669
▁Fanny	-13.3669
▁Instantly	-13.3669
▁Jemma	-13.3669
▁Lori	-13.3669
▁Olga	-13.3669
▁Pumpkin	-13.3669
▁Rusty	-13.3669
▁Tuffy	-13.3669
▁angrily	-13.3669
▁bubbling	-13.3669
▁centre	-13.3669
▁childhood	-13.3669
▁cinema	-13.3669
▁deciding	-13.3669
▁enemies	-13.3669
▁frustration	-13.3669
▁halves	-13.3669
▁hips	-13.3669
▁icicle	-13.3669
▁juicie	-13.3669
▁mesmerised	-13.3669
▁niece	-13.3669
▁nightstand	-13.3669
▁pollen	-13.3669
▁process	-13.3669
▁royal	-13.3669
▁sensation	-13.3669
▁service	-13.3669
▁tantrum	-13.3669
▁tightrope	-13.3669
▁till	-13.3669
▁unfair	-13.3669
▁urging	-13.3669
▁Winnie	-13.3669
▁unkind	-13.3669
▁wetter	-13.367
▁Toni	-13.367
▁drill	-13.367
▁Clucky	-13.367
▁cigarette	-13.367
▁panicking	-13.367
▁facing	-13.367
▁tingle	-13.367
▁BunBun	-13.367
▁Margaret	-13.367
▁teamwork	-13.367
▁concerned	-13.3671
▁boiled	-13.3672
▁strolled	-13.3676
▁Peace	-13.3676
▁Over	-13.3677
▁Imagine	-13.3678
▁mate	-13.3681
▁Boom	-13.3685
▁bra	-13.3685
spect	-13.3687
▁crowded	-13.3691
▁Hurry	-13.3692
▁brakes	-13.3693
▁absolutely	-13.3695
▁footprints	-13.3698
▁seriously	-13.3701
▁Salt	-13.3712
ant	-13.3713
▁rider	-13.3715
▁jumper	-13.3718
▁shyly	-13.3731
▁Boo	-13.3739
▁pace	-13.3762
▁zigzagg	-13.3762
▁sweaters	-13.3766
▁racers	-13.3769
▁gates	-13.3779
▁oldest	-13.3781
▁dock	-13.3796
Isn	-13.3852
▁dolly	-13.3854
▁musicians	-13.3857
▁spears	-13.3866
▁bathed	-13.3868
▁canes	-13.3895
Jo	-13.3913
our	-13.3939
▁swap	-13.395
▁Juliet	-13.3956
pl	-13.3966
▁raincoats	-13.397
▁unicorns	-13.3984
ble	-13.3997
reat	-13.4007
nd	-13.4008
▁sprinkl	-13.4018
ick	-13.4022
▁Tuesdays	-13.4038
▁brag	-13.4046
now	-13.4076
▁webs	-13.4084
▁capes	-13.4097
▁capture	-13.4103
▁acts	-13.4159
ade	-13.4218
▁runner	-13.4221
▁thorn	-13.4223
▁passenger	-13.4224
▁surrounding	-13.4224
▁actor	-13.4226
don	-13.4237
▁Ken	-13.4253
print	-13.427
Sleep	-13.4275
just	-13.4275
Baa	-13.4275
Fire	-13.4277
▁barrels	-13.4282
▁harvest	-13.429
▁echo	-13.429
▁distract	-13.429
▁untangle	-13.4291
▁explode	-13.4291
per	-13.4292
cha	-13.4294
▁reflect	-13.4294
Push	-13.4294
▁15	-13.4294
▁20	-13.4294
▁Confused	-13.4294
▁Gaby	-13.4294
▁Jody	-13.4294
▁Maisie	-13.4294
▁Nurse	-13.4294
▁Russel	-13.4294
▁Stripey	-13.4294
▁THE	-13.4294
▁Tori	-13.4294
▁Walter	-13.4294
▁Worry	-13.4294
▁angrier	-13.4294
▁carousel	-13.4294
▁devastated	-13.4294
▁doorstep	-13.4294
▁farewell	-13.4294
▁frightening	-13.4294
▁handlebars	-13.4294
▁intelligence	-13.4294
▁keyhole	-13.4294
▁lava	-13.4294
▁managing	-13.4294
▁microwave	-13.4294
▁nephew	-13.4294
▁orchard	-13.4294
▁progress	-13.4294
▁recess	-13.4294
▁trading	-13.4294
▁tugging	-13.4294
▁watermelon	-13.4294
▁Beatrice	-13.4294
▁Laser	-13.4294
▁Nia	-13.4294
▁Timothy	-13.4294
▁daddies	-13.4294
▁desire	-13.4294
▁grade	-13.4294
▁Panda	-13.4294
▁lurk	-13.4294
▁yummies	-13.4294
Hooray	-13.4294
▁chatted	-13.4294
▁quest	-13.4294
▁Tammy	-13.4294
▁packet	-13.4294
▁admit	-13.4295
▁Cow	-13.4295
▁escaping	-13.4295
▁nudge	-13.4295
▁jay	-13.4295
zy	-13.4296
▁bellies	-13.4296
▁position	-13.4296
▁Cheap	-13.4296
▁chatting	-13.4296
▁Goose	-13.4297
▁boiling	-13.4298
▁volcanoes	-13.4298
▁sweating	-13.4298
▁Celery	-13.4299
▁Toys	-13.4299
▁Turn	-13.4301
▁necessary	-13.4303
▁Stand	-13.4307
▁panting	-13.4309
Stir	-13.431
Shoo	-13.4313
▁deserved	-13.4314
▁Peanut	-13.4315
▁Anytime	-13.432
▁wrecked	-13.4324
▁successfully	-13.433
▁upside	-13.433
▁Ash	-13.4344
▁performers	-13.4354
œOK	-13.4356
▁loudest	-13.4359
▁stomachs	-13.4363
▁begs	-13.4367
▁dates	-13.4377
▁marking	-13.4378
▁jets	-13.4399
▁du	-13.441
▁robe	-13.443
▁deeply	-13.4435
▁crickets	-13.4437
▁bleeds	-13.4438
▁po	-13.4448
▁occasions	-13.4466
▁kissing	-13.4483
▁reader	-13.4497
▁clothing	-13.4498
▁beg	-13.4499
cy	-13.4515
▁ghosts	-13.4523
▁wobbles	-13.4529
▁Wait	-13.4529
rr	-13.4594
▁layer	-13.4605
▁wrists	-13.462
▁meows	-13.4621
▁tucks	-13.4674
▁stares	-13.4678
▁skirts	-13.4693
▁gr	-13.4727
▁seasons	-13.4732
▁solutions	-13.4742
▁pecks	-13.4752
hoo	-13.4762
▁envelopes	-13.4785
▁clubs	-13.4786
▁stings	-13.4846
▁tow	-13.485
▁glows	-13.4862
mit	-13.4864
▁spice	-13.4868
▁th	-13.4877
Sh	-13.4879
▁praise	-13.4883
▁shrug	-13.4888
▁grandparent	-13.489
▁bangs	-13.4891
▁stripe	-13.4903
œJohn	-13.4918
▁tanks	-13.4924
▁appears	-13.4931
lieve	-13.4936
Kids	-13.4941
Some	-13.4941
Jane	-13.4942
Mittens	-13.4942
Jenny	-13.4942
bee	-13.4947
mon	-13.4952
▁squish	-13.4956
▁connect	-13.4956
▁War	-13.4957
▁perch	-13.4957
▁caw	-13.4957
▁Nat	-13.4959
0	-13.496
▁Snow	-13.496
▁glance	-13.4961
Danger	-13.4961
zagg	-13.4961
Different	-13.4961
▁Aaron	-13.4961
▁Bambi	-13.4961
▁Elisa	-13.4961
▁Friendship	-13.4961
▁Hairy	-13.4961
▁Rocco	-13.4961
▁Slimy	-13.4961
▁Stacey	-13.4961
▁Sunflower	-13.4961
▁Tippy	-13.4961
▁Witch	-13.4961
▁astonished	-13.4961
▁chunk	-13.4961
▁cities	-13.4961
▁coconut	-13.4961
▁confusing	-13.4961
▁confusion	-13.4961
▁department	-13.4961
▁disaster	-13.4961
▁fuss	-13.4961
▁glint	-13.4961
▁goggles	-13.4961
▁hamburger	-13.4961
▁horror	-13.4961
▁independence	-13.4961
▁inseparable	-13.4961
▁instincts	-13.4961
▁lilies	-13.4961
▁loneliness	-13.4961
▁magnificent	-13.4961
▁mini	-13.4961
▁mushy	-13.4961
▁nibbling	-13.4961
▁sleigh	-13.4961
▁stiff	-13.4961
▁thousand	-13.4961
▁vibrant	-13.4961
▁wiggling	-13.4961
▁wrench	-13.4961
Congratulations	-13.4961
▁code	-13.4961
▁dragonfly	-13.4961
Abracadabra	-13.4961
▁Janice	-13.4961
▁undone	-13.4961
▁braid	-13.4961
▁hoof	-13.4961
▁raking	-13.4961
▁shortcut	-13.4961
▁fluff	-13.4961
▁reaction	-13.4961
▁whiskers	-13.4961
▁toppings	-13.4961
▁wax	-13.4961
▁Marco	-13.4961
▁invention	-13.4961
▁Gregg	-13.4961
▁foggy	-13.4961
▁bait	-13.4961
▁rustle	-13.4961
▁goldfish	-13.4961
▁wanna	-13.4961
▁dripped	-13.4961
▁Rolly	-13.4961
▁fireflies	-13.4961
▁batch	-13.4961
▁Owen	-13.4962
▁fashionable	-13.4962
▁stroller	-13.4962
▁Cuddles	-13.4962
▁Grandmother	-13.4962
▁approval	-13.4962
▁energized	-13.4962
▁ruffled	-13.4962
Writing	-13.4962
▁sneakers	-13.4962
▁fondly	-13.4963
▁Brave	-13.4963
▁booth	-13.4963
▁huff	-13.4964
▁painful	-13.4964
▁Carrot	-13.4964
▁ostriches	-13.4965
œRemember	-13.4966
▁Faster	-13.4966
▁Rainbow	-13.4966
▁stretcher	-13.4967
▁Elephant	-13.4969
▁Juice	-13.4969
▁Yoga	-13.4969
▁brightened	-13.4969
▁floaty	-13.497
▁sickness	-13.4973
ssing	-13.4979
▁Kids	-13.4981
œThere	-13.4985
▁Open	-13.4987
▁howling	-13.4991
▁Show	-13.4991
▁sleeves	-13.4999
▁entering	-13.5009
▁Maxi	-13.5012
▁surrendering	-13.5022
▁cucumbers	-13.5024
▁accepting	-13.5026
illy	-13.5029
▁Ed	-13.5032
▁shrugs	-13.5034
▁resisting	-13.5039
▁doggie	-13.5043
▁shrimps	-13.5056
▁Play	-13.5071
▁soda	-13.5086
Willie	-13.5087
▁curls	-13.5095
▁tumble	-13.5106
▁stains	-13.512
▁sneezes	-13.5138
▁lightly	-13.5139
▁spi	-13.514
▁aeroplanes	-13.5158
▁landing	-13.5162
▁swimsuits	-13.5166
ions	-13.5174
▁delightful	-13.518
▁minded	-13.5185
ba	-13.5226
Fun	-13.5258
ag	-13.526
▁cousins	-13.5274
▁mindful	-13.5308
Whoa	-13.5309
▁medals	-13.5333
▁ladybugs	-13.5373
▁Too	-13.5392
▁bends	-13.5393
oni	-13.5399
meters	-13.5462
▁rags	-13.5475
▁challenges	-13.5495
ney	-13.5514
▁pearls	-13.5538
▁qu	-13.5547
▁peeks	-13.5556
▁Choo	-13.5574
▁bruise	-13.56
▁motors	-13.5603
▁attempt	-13.5603
▁pancake	-13.5605
▁per	-13.5644
bird	-13.5649
Bird	-13.5656
tweet	-13.5656
Everything	-13.5656
From	-13.5656
Everyone	-13.5656
Leo	-13.5656
stick	-13.5657
that	-13.5657
well	-13.5662
▁scribble	-13.5665
▁thrill	-13.5667
▁sweat	-13.567
▁jingle	-13.5671
▁excite	-13.5672
▁Kat	-13.5672
▁threads	-13.5672
▁neigh	-13.5673
▁droop	-13.5674
▁Rich	-13.5675
▁Brother	-13.5675
▁Peppa	-13.5675
▁barbecue	-13.5675
▁defend	-13.5675
▁invisible	-13.5675
▁rack	-13.5675
▁trophies	-13.5675
▁unfold	-13.5675
▁worksheet	-13.5675
Freeze	-13.5675
▁Curly	-13.5675
▁Dash	-13.5675
▁Dennis	-13.5675
▁Figure	-13.5675
▁Kyle	-13.5675
▁Lynn	-13.5675
▁Marley	-13.5675
▁Marshmallow	-13.5675
▁Miles	-13.5675
▁Officer	-13.5675
▁Paige	-13.5675
▁Pedro	-13.5675
▁Pixie	-13.5675
▁Silver	-13.5675
▁Susy	-13.5675
▁Sylvester	-13.5675
▁attendant	-13.5675
▁begun	-13.5675
▁ceremony	-13.5675
▁commotion	-13.5675
▁flippers	-13.5675
▁furious	-13.5675
▁gruff	-13.5675
▁hint	-13.5675
▁information	-13.5675
▁platform	-13.5675
▁possibilities	-13.5675
▁quizzes	-13.5675
▁rooster	-13.5675
▁wicked	-13.5675
▁wolves	-13.5675
▁Near	-13.5675
▁Piggy	-13.5675
▁Puddles	-13.5675
▁double	-13.5675
▁extreme	-13.5675
▁deck	-13.5675
▁Pluto	-13.5675
▁solid	-13.5675
▁persistence	-13.5675
▁Biggy	-13.5675
▁pickles	-13.5675
▁Race	-13.5675
ety	-13.5675
▁coop	-13.5675
▁Hopper	-13.5675
▁Candy	-13.5675
▁disagreement	-13.5675
▁Pinchy	-13.5676
▁cooperate	-13.5676
▁Drake	-13.5676
▁harmful	-13.5676
▁crispy	-13.5676
▁organised	-13.5676
▁Sid	-13.5676
niest	-13.5676
▁smudge	-13.5676
▁knitting	-13.5676
▁Micky	-13.5677
▁Jaya	-13.5677
▁lumpy	-13.5677
▁bobbed	-13.5677
▁scowled	-13.5677
▁Chess	-13.5678
▁Promise	-13.5678
▁Jeremy	-13.5678
Grow	-13.5679
▁chattered	-13.5679
▁switches	-13.568
▁Ribbit	-13.5682
▁mooed	-13.5682
▁Count	-13.5684
▁gadgets	-13.5684
▁Sprinkles	-13.5684
Try	-13.5686
▁motorcycles	-13.5689
▁coughing	-13.5699
▁playhouse	-13.5705
▁impatiently	-13.5709
▁golfer	-13.5711
▁banging	-13.5714
▁Gus	-13.5716
▁succeeding	-13.5719
▁differences	-13.572
▁splashy	-13.572
▁pals	-13.5721
▁biscuits	-13.5732
▁sculptures	-13.5732
▁attempts	-13.5748
▁displaying	-13.5749
▁di	-13.575
▁smoothly	-13.5753
▁actors	-13.5759
▁hooked	-13.5764
▁Wis	-13.5765
ating	-13.5767
▁springing	-13.5767
▁scraps	-13.5785
▁howl	-13.5794
▁targets	-13.5803
▁palms	-13.5812
▁battles	-13.5825
▁tongues	-13.5834
▁kinder	-13.5843
▁rattle	-13.5871
ck	-13.5874
▁duckie	-13.5899
▁handy	-13.5931
ran	-13.5934
▁Franc	-13.5945
▁fi	-13.5971
ame	-13.5994
▁pokes	-13.5995
▁mi	-13.604
▁importantly	-13.6072
ated	-13.6089
itting	-13.6097
▁loads	-13.6107
▁blooms	-13.6125
▁Sit	-13.6128
▁training	-13.6142
▁Jimm	-13.6168
▁gobble	-13.6266
▁ta	-13.6301
▁Boy	-13.6314
hearted	-13.6361
▁elder	-13.6371
▁servant	-13.6371
▁cucumber	-13.6372
▁blessing	-13.6373
▁snowflake	-13.6374
▁performer	-13.6381
▁massages	-13.6384
rink	-13.6411
tic	-13.6418
▁Liza	-13.642
las	-13.642
5	-13.6425
Enjoy	-13.6425
First	-13.6425
Daisy	-13.6425
welcome	-13.6425
▁boil	-13.6436
▁limp	-13.644
▁screech	-13.644
▁fail	-13.644
▁tilt	-13.644
▁smash	-13.644
tumbling	-13.6443
urprisingly	-13.6443
▁gu	-13.6443
▁silk	-13.6444
▁gloom	-13.6444
▁glim	-13.6444
▁fright	-13.6445
▁consider	-13.6445
Coffee	-13.6445
Paint	-13.6445
▁Ashlee	-13.6445
▁Bruno	-13.6445
▁Dare	-13.6445
▁Eliza	-13.6445
▁Fae	-13.6445
▁Madeline	-13.6445
▁Maggy	-13.6445
▁Midnight	-13.6445
▁Misty	-13.6445
▁Old	-13.6445
▁Otter	-13.6445
▁Violet	-13.6445
▁antlers	-13.6445
▁atmosphere	-13.6445
▁babysitter	-13.6445
▁blacksmith	-13.6445
▁caretaker	-13.6445
▁command	-13.6445
▁frisbee	-13.6445
▁grandchildren	-13.6445
▁honeycomb	-13.6445
▁injuries	-13.6445
▁nightfall	-13.6445
▁overflowing	-13.6445
▁pendant	-13.6445
▁porridge	-13.6445
▁practising	-13.6445
▁principal	-13.6445
▁purchase	-13.6445
▁refusing	-13.6445
▁retrieve	-13.6445
▁shaky	-13.6445
▁slurp	-13.6445
▁snoring	-13.6445
▁studio	-13.6445
▁zap	-13.6445
▁Clown	-13.6445
▁Copper	-13.6445
▁White	-13.6445
▁allergic	-13.6445
▁sparrow	-13.6445
▁Winter	-13.6445
▁earrings	-13.6445
▁construction	-13.6445
▁punch	-13.6445
▁100	-13.6445
▁waitress	-13.6445
▁spiky	-13.6445
▁embarrassment	-13.6445
▁recovered	-13.6445
▁Black	-13.6445
▁Nellie	-13.6445
▁allowance	-13.6445
▁Wings	-13.6445
▁Cole	-13.6445
▁loyalty	-13.6445
inkling	-13.6445
▁bullet	-13.6445
▁Mop	-13.6445
▁groaned	-13.6445
▁dries	-13.6446
▁carefree	-13.6446
▁Jam	-13.6446
▁bud	-13.6446
▁prick	-13.6446
pse	-13.6446
▁Sleepy	-13.6446
▁involved	-13.6446
▁ouch	-13.6446
▁Shelly	-13.6446
▁clucked	-13.6447
▁risky	-13.6447
▁wilted	-13.6447
▁Piper	-13.6448
▁scrunched	-13.6448
▁uncovered	-13.6448
▁Rock	-13.6449
▁fourth	-13.6449
▁disobedient	-13.645
spected	-13.645
▁Dinner	-13.645
▁softened	-13.645
œWill	-13.6451
▁cheating	-13.6453
▁hatch	-13.6454
▁ouchy	-13.6454
▁strumm	-13.6456
▁hideout	-13.646
▁behold	-13.646
▁Beary	-13.6464
Ooh	-13.6467
ocked	-13.6472
▁bending	-13.6474
▁pucker	-13.6478
▁Anny	-13.6478
▁More	-13.6479
œAre	-13.6479
Johnny	-13.6479
▁Fly	-13.648
▁dragging	-13.648
▁online	-13.6481
▁jacks	-13.6483
▁stalks	-13.6494
▁tales	-13.6494
▁signal	-13.6498
▁stitched	-13.6498
▁laces	-13.6506
▁possessions	-13.6506
▁spelled	-13.6521
▁mustaches	-13.653
own	-13.6531
▁ironing	-13.6531
▁momma	-13.6537
▁sealed	-13.6539
ize	-13.6539
▁Find	-13.6541
age	-13.6541
▁Justy	-13.6545
▁widely	-13.6549
▁wrappers	-13.6559
▁sinking	-13.6563
ami	-13.6569
▁greater	-13.657
Catch	-13.6581
Ta	-13.6591
▁heights	-13.6595
▁laws	-13.6595
▁va	-13.6635
Ro	-13.6642
Ma	-13.6652
▁numbered	-13.6652
Ho	-13.6659
Aw	-13.6695
▁bare	-13.6793
▁stems	-13.6799
▁arrives	-13.6903
land	-13.6972
▁regretful	-13.7002
▁Ca	-13.7003
ho	-13.7022
▁N	-13.7046
▁pe	-13.7049
over	-13.7084
.'"	-13.7095
V	-13.714
▁tighten	-13.715
▁en	-13.715
▁Sundays	-13.717
house	-13.7196
▁flavour	-13.7206
▁Afterward	-13.7207
▁su	-13.7217
▁ex	-13.7218
hew	-13.7232
▁models	-13.7252
▁wo	-13.7254
box	-13.7254
Three	-13.7258
Silly	-13.7258
On	-13.7258
master	-13.7258
Sharing	-13.7258
rushed	-13.7258
Mark	-13.7258
believe	-13.7258
sorry	-13.7259
back	-13.7259
Sarah	-13.726
Nothing	-13.726
iled	-13.7261
Fly	-13.7263
▁guid	-13.7264
Dog	-13.7266
dough	-13.7267
Po	-13.7269
▁squawk	-13.7269
▁chatter	-13.7269
▁creak	-13.7269
made	-13.7269
▁uncover	-13.7274
▁caf	-13.7275
▁kill	-13.7275
unshine	-13.7276
▁Mint	-13.7277
▁Speed	-13.7277
▁yuck	-13.7277
▁fo	-13.7277
▁Sad	-13.7277
SH	-13.7278
▁speck	-13.7278
▁Crab	-13.7278
/	-13.7278
Children	-13.7278
▁Africa	-13.7278
▁Crusty	-13.7278
▁Father	-13.7278
▁Flappy	-13.7278
▁Melina	-13.7278
▁Poppie	-13.7278
▁Trista	-13.7278
▁Twit	-13.7278
▁cruel	-13.7278
▁eleven	-13.7278
▁farthest	-13.7278
▁pudding	-13.7278
Brrr	-13.7278
▁Bizzy	-13.7278
▁Bud	-13.7278
▁China	-13.7278
▁Craig	-13.7278
▁Elmo	-13.7278
▁Giggle	-13.7278
▁Hood	-13.7278
▁Hugs	-13.7278
▁Joseph	-13.7278
▁Kaylee	-13.7278
▁Kisa	-13.7278
▁Maple	-13.7278
▁Michelle	-13.7278
▁Orange	-13.7278
▁Stuart	-13.7278
▁Tiki	-13.7278
▁Underneath	-13.7278
▁Yolanda	-13.7278
▁fossil	-13.7278
▁grumbling	-13.7278
▁innocent	-13.7278
▁length	-13.7278
▁private	-13.7278
▁props	-13.7278
▁register	-13.7278
▁resume	-13.7278
▁skating	-13.7278
▁throne	-13.7278
▁whining	-13.7278
▁Kerry	-13.7278
▁angle	-13.7278
▁headache	-13.7278
▁restoring	-13.7278
▁Grandad	-13.7278
▁Lightning	-13.7278
▁ditch	-13.7278
▁infection	-13.7278
▁shame	-13.7278
▁Tabby	-13.7278
▁damp	-13.7278
▁sniffles	-13.7278
▁Rid	-13.7278
▁unzip	-13.7278
▁adjust	-13.7278
▁Mei	-13.7278
▁rotted	-13.7278
▁undo	-13.7278
▁Karla	-13.7278
▁Wish	-13.7278
Eat	-13.7278
▁creepy	-13.7278
▁Pit	-13.7278
▁mold	-13.7278
▁Basketball	-13.7279
▁Skeleton	-13.7279
▁Alexis	-13.7279
▁prisoner	-13.7279
▁contentment	-13.7279
▁threatened	-13.7279
▁storybook	-13.728
▁Off	-13.728
▁leftover	-13.728
▁Shrimp	-13.7281
▁dirtier	-13.7281
▁gulped	-13.7281
▁concentrated	-13.7281
▁8	-13.7282
▁tickly	-13.7282
œMama	-13.7283
▁Hill	-13.7283
▁Want	-13.7284
▁stomping	-13.7284
▁app	-13.7284
▁plac	-13.7286
œWelcome	-13.7287
▁leaped	-13.7287
fived	-13.7288
▁rash	-13.7288
▁strolling	-13.7288
œWait	-13.7289
▁flyer	-13.7289
▁stained	-13.7289
▁Fish	-13.729
bear	-13.7291
▁forty	-13.7293
▁Co	-13.7294
▁smoother	-13.7304
œHere	-13.7306
▁Bess	-13.7306
▁designer	-13.731
▁engineer	-13.731
▁na	-13.7312
▁stinger	-13.7316
▁softness	-13.7316
▁sunk	-13.7316
▁Petey	-13.7317
▁howled	-13.7317
▁rowing	-13.732
▁bi	-13.732
▁yawning	-13.7322
▁striped	-13.7326
Five	-13.7327
▁fiercely	-13.7329
▁roller	-13.734
▁Sami	-13.7342
▁perk	-13.7344
▁spoiling	-13.7345
▁exercised	-13.7346
▁flavours	-13.7351
▁homeless	-13.736
▁bubbled	-13.7364
▁beeping	-13.7379
Whi	-13.7383
vin	-13.7385
aste	-13.7388
▁hurrying	-13.7388
▁Cars	-13.7394
▁suggests	-13.741
▁whines	-13.7422
▁aims	-13.7488
Fi	-13.7491
lass	-13.7502
stop	-13.752
▁learner	-13.7539
▁conversations	-13.754
▁calming	-13.7554
▁lasted	-13.7559
hed	-13.7591
Li	-13.7668
▁snowing	-13.7695
act	-13.7697
▁fr	-13.7707
▁swapp	-13.7761
▁buyer	-13.7787
œW	-13.7817
▁crackle	-13.7851
ock	-13.7864
▁paddles	-13.7866
▁quacks	-13.7867
▁banks	-13.7907
▁Ra	-13.7925
▁Mac	-13.7931
ong	-13.802
Working	-13.8035
▁Wil	-13.804
wr	-13.8043
▁sa	-13.8063
▁pea	-13.8097
▁curve	-13.8109
▁possession	-13.8114
▁biscuit	-13.8114
▁sculpture	-13.8114
▁lace	-13.8115
ery	-13.8117
coming	-13.8142
▁puck	-13.8148
▁Lu	-13.8159
bble	-13.8164
even	-13.8166
▁dodg	-13.8167
Rain	-13.8167
like	-13.8167
freeze	-13.8168
piece	-13.8168
Kitty	-13.8168
Lisa	-13.8168
Teddy	-13.8168
With	-13.8168
bang	-13.8168
Bunny	-13.8168
heard	-13.8168
this	-13.8169
Ra	-13.8171
▁mast	-13.8179
▁continu	-13.8181
▁figur	-13.8181
▁remov	-13.8181
▁blend	-13.8182
▁conquer	-13.8183
oving	-13.8184
ister	-13.8186
▁Nell	-13.8186
▁crisp	-13.8186
▁Read	-13.8186
▁scoot	-13.8186
▁waddle	-13.8186
▁Karl	-13.8187
▁Pap	-13.8187
roccoli	-13.8187
appiness	-13.8187
▁Isla	-13.8187
Chirp	-13.8187
▁decrease	-13.8187
Beware	-13.8187
Jordan	-13.8187
talkie	-13.8187
▁Alfred	-13.8187
▁Bosco	-13.8187
▁Brandy	-13.8187
▁CRA	-13.8187
▁Chickie	-13.8187
▁Crocodile	-13.8187
▁DVD	-13.8187
▁Debby	-13.8187
▁Denise	-13.8187
▁Dotty	-13.8187
▁Ethan	-13.8187
▁Grumbles	-13.8187
▁Isabel	-13.8187
▁Jennifer	-13.8187
▁Jodie	-13.8187
▁Jumpy	-13.8187
▁Lucie	-13.8187
▁Oscar	-13.8187
▁Otto	-13.8187
▁Petal	-13.8187
▁Riko	-13.8187
▁SNAP	-13.8187
▁Scarecrow	-13.8187
▁Shawn	-13.8187
▁Snake	-13.8187
▁affect	-13.8187
▁begging	-13.8187
▁carnival	-13.8187
▁downstream	-13.8187
▁emergencies	-13.8187
▁excellent	-13.8187
▁fifteen	-13.8187
▁flagpole	-13.8187
▁godmother	-13.8187
▁grandkids	-13.8187
▁hardworking	-13.8187
▁hopscotch	-13.8187
▁lobby	-13.8187
▁ointment	-13.8187
▁outsmart	-13.8187
▁plums	-13.8187
▁recycle	-13.8187
▁responsibly	-13.8187
▁route	-13.8187
▁scaly	-13.8187
▁sixteen	-13.8187
▁slightly	-13.8187
▁slime	-13.8187
▁smoky	-13.8187
▁sphere	-13.8187
▁squat	-13.8187
▁strict	-13.8187
▁supermarket	-13.8187
▁suspicious	-13.8187
▁unison	-13.8187
▁uniting	-13.8187
▁victorious	-13.8187
▁yummier	-13.8187
▁Grizzly	-13.8187
▁Melanie	-13.8187
▁ogre	-13.8187
▁trimmed	-13.8187
▁Cozy	-13.8187
▁Yaya	-13.8187
▁admitted	-13.8187
▁preferr	-13.8187
▁considerate	-13.8187
▁polka	-13.8187
▁role	-13.8187
▁stash	-13.8187
▁Dina	-13.8187
▁daycare	-13.8187
▁Bert	-13.8187
▁insistent	-13.8187
▁disturbance	-13.8187
▁Rocko	-13.8187
▁lioness	-13.8187
▁Hot	-13.8187
▁snipped	-13.8187
▁payoff	-13.8187
▁Chewy	-13.8187
▁rejoiced	-13.8188
▁diner	-13.8188
▁carrier	-13.8188
▁Kimmy	-13.8188
▁Rocky	-13.8188
▁abilities	-13.8188
▁equally	-13.8188
▁sipping	-13.8188
▁None	-13.8188
▁boost	-13.8189
▁Kind	-13.8189
▁blessed	-13.819
▁Zane	-13.819
▁Cherry	-13.819
▁Furball	-13.819
▁ribbit	-13.819
▁Money	-13.819
▁Mariah	-13.819
▁squirmed	-13.8191
▁joyous	-13.8191
▁mended	-13.8191
Free	-13.8191
▁pitcher	-13.8192
▁splinter	-13.8192
▁Stretch	-13.8192
▁nightlight	-13.8194
▁croaking	-13.8194
▁risen	-13.8194
▁witches	-13.8194
▁empt	-13.8196
▁quicker	-13.8198
▁pointer	-13.8198
▁somersaults	-13.8198
▁scolding	-13.8198
▁Beetle	-13.82
▁Magic	-13.82
Ba	-13.8202
▁shaken	-13.8204
▁cartwheels	-13.8205
▁Three	-13.8209
▁musical	-13.821
lope	-13.821
▁paramedics	-13.8212
▁rink	-13.8212
tally	-13.8214
▁sta	-13.8216
▁disagreeing	-13.822
▁crumble	-13.8222
▁shoelaces	-13.8226
▁sicker	-13.8229
▁flooded	-13.8239
▁appearing	-13.8241
▁leafy	-13.8243
▁rung	-13.8243
▁Kent	-13.8248
▁pitched	-13.8251
▁colouring	-13.8254
▁flopp	-13.8271
▁Woof	-13.8273
▁servants	-13.8275
▁traveler	-13.8283
▁scribbles	-13.8285
▁Ina	-13.8289
Mmmm	-13.829
▁rev	-13.8295
▁runners	-13.8296
ka	-13.8365
▁aisles	-13.8403
▁spine	-13.8419
gy	-13.8424
▁loosen	-13.8428
rd	-13.8444
wing	-13.8449
▁corals	-13.8548
Per	-13.8552
▁Bees	-13.8556
▁Music	-13.8563
▁ages	-13.8579
aring	-13.8604
▁Birds	-13.8621
▁chirps	-13.8665
▁Lemon	-13.8704
idden	-13.8713
wed	-13.8719
pic	-13.8734
▁grownup	-13.875
▁pee	-13.8787
ugged	-13.8827
Coo	-13.8831
rted	-13.8844
od	-13.8874
▁riches	-13.8889
▁vari	-13.8941
kes	-13.8979
▁Toot	-13.9012
izard	-13.9041
▁High	-13.9055
▁marvel	-13.9076
▁cla	-13.9092
Doll	-13.9096
▁hurtful	-13.9125
mashed	-13.9127
utter	-13.9145
▁weave	-13.9145
NO	-13.9166
Climb	-13.9167
Emma	-13.9167
Pick	-13.9167
covered	-13.9167
maker	-13.9167
meow	-13.9167
coloured	-13.9167
clock	-13.9168
pilot	-13.9168
Jim	-13.9168
Even	-13.9168
Mary	-13.9168
Cat	-13.9168
▁wriggl	-13.9169
handed	-13.917
down	-13.9173
▁Tad	-13.9175
▁squeal	-13.9178
▁approach	-13.9179
▁recogniz	-13.918
▁promis	-13.9181
Z	-13.9183
▁erupt	-13.9183
▁squirm	-13.9183
▁scrunch	-13.9183
▁snore	-13.9183
▁transform	-13.9183
▁accomplish	-13.9183
udged	-13.9184
▁Abbi	-13.9185
▁shove	-13.9185
auce	-13.9185
▁instant	-13.9186
▁Marc	-13.9186
▁Spark	-13.9186
▁Mole	-13.9186
▁Plu	-13.9187
▁favor	-13.9187
▁Light	-13.9187
▁resource	-13.9187
Six	-13.9187
Throw	-13.9187
▁12	-13.9187
▁Anastasia	-13.9187
▁Biggie	-13.9187
▁Cecil	-13.9187
▁Chompy	-13.9187
▁Clarice	-13.9187
▁Cleo	-13.9187
▁Clumsy	-13.9187
▁Fribble	-13.9187
▁Frustrated	-13.9187
▁Gloria	-13.9187
▁Harriet	-13.9187
▁Hawk	-13.9187
▁Learn	-13.9187
▁Lego	-13.9187
▁Lucas	-13.9187
▁Lyla	-13.9187
▁Maja	-13.9187
▁Marvin	-13.9187
▁Missile	-13.9187
▁Nadia	-13.9187
▁Nei	-13.9187
▁Otty	-13.9187
▁Ranger	-13.9187
▁Sebastian	-13.9187
▁Silvia	-13.9187
▁Sniffer	-13.9187
▁Tillie	-13.9187
▁Whippy	-13.9187
▁Zeke	-13.9187
▁algae	-13.9187
▁basil	-13.9187
▁boulder	-13.9187
▁breadcrumbs	-13.9187
▁centi	-13.9187
▁cheesy	-13.9187
▁combined	-13.9187
▁complicated	-13.9187
▁cornfield	-13.9187
▁detective	-13.9187
▁device	-13.9187
▁dishonest	-13.9187
▁fading	-13.9187
▁fawn	-13.9187
▁firetruck	-13.9187
▁flex	-13.9187
▁fortunate	-13.9187
▁gooey	-13.9187
▁grumpiness	-13.9187
▁heaviest	-13.9187
▁hungrier	-13.9187
▁injury	-13.9187
▁jeans	-13.9187
▁lawnmower	-13.9187
▁luxurious	-13.9187
▁murky	-13.9187
▁quality	-13.9187
▁rainwater	-13.9187
▁recital	-13.9187
▁relationship	-13.9187
▁rhyme	-13.9187
▁salsa	-13.9187
▁science	-13.9187
▁silverware	-13.9187
▁snarled	-13.9187
▁spiral	-13.9187
▁splattered	-13.9187
▁staircase	-13.9187
▁storeowner	-13.9187
▁stunned	-13.9187
▁swerve	-13.9187
▁terribly	-13.9187
▁tiara	-13.9187
▁vacuum	-13.9187
▁voyage	-13.9187
Spicy	-13.9187
▁Jonas	-13.9187
▁Lime	-13.9187
▁Mackenzie	-13.9187
▁measurements	-13.9187
▁thinner	-13.9187
▁whirring	-13.9187
▁Lacy	-13.9187
▁Slip	-13.9187
odle	-13.9187
▁Gradually	-13.9187
▁Loop	-13.9187
▁Surprised	-13.9187
▁champion	-13.9187
▁saddle	-13.9187
▁Colorful	-13.9187
▁Daughter	-13.9187
▁Rollie	-13.9187
▁sideways	-13.9187
Tino	-13.9187
Dream	-13.9187
▁awaited	-13.9187
▁Happyland	-13.9187
▁products	-13.9187
▁Think	-13.9187
Swim	-13.9187
▁coaster	-13.9187
▁meaningful	-13.9187
▁unlike	-13.9187
▁plus	-13.9187
▁Louie	-13.9187
▁exception	-13.9187
▁reel	-13.9187
▁Island	-13.9187
▁Nosy	-13.9187
▁Bull	-13.9187
▁pedalled	-13.9187
▁spout	-13.9187
▁grasp	-13.9188
▁adventurers	-13.9188
▁supportive	-13.9188
▁Fake	-13.9188
▁sorrow	-13.9188
▁Macy	-13.9188
▁descended	-13.9188
▁gleaming	-13.9188
▁Jana	-13.9188
▁Bop	-13.9188
▁loss	-13.9189
▁burped	-13.9189
zzz	-13.9189
▁litter	-13.9189
▁cursed	-13.9189
▁passion	-13.9189
▁twitched	-13.9189
▁Captain	-13.919
▁gentleman	-13.919
▁ponytail	-13.9191
▁curved	-13.9191
▁blended	-13.9192
▁creaked	-13.9192
▁squawked	-13.9192
▁creaking	-13.9192
œWhen	-13.9193
▁quickest	-13.9193
▁Foxy	-13.9193
▁Cathy	-13.9194
▁Amen	-13.9195
▁messier	-13.9195
▁ticking	-13.9196
▁Park	-13.9197
▁hiked	-13.9198
▁selfishness	-13.9198
Phew	-13.9201
▁cleverness	-13.9202
▁scratchy	-13.9203
▁lovingly	-13.9203
▁Should	-13.9203
▁Wiggle	-13.9204
▁Nor	-13.9206
▁Climb	-13.9207
ady	-13.9207
▁sobbing	-13.9208
▁stretchy	-13.921
▁feeder	-13.9211
▁whirl	-13.9211
▁oily	-13.9212
▁Silly	-13.9212
▁ruby	-13.9213
▁obstacles	-13.9214
▁Emil	-13.9219
œHelp	-13.9222
▁limits	-13.9222
▁sweetness	-13.9224
▁booming	-13.9227
▁K	-13.9235
▁cr	-13.9237
teful	-13.9238
▁mend	-13.9243
▁carelessly	-13.9244
▁regularly	-13.9244
▁yielding	-13.9248
▁normally	-13.925
▁ripples	-13.9253
▁habits	-13.9253
ary	-13.9257
▁drained	-13.9263
▁curves	-13.9269
▁Y	-13.927
ria	-13.9295
▁outcome	-13.9296
▁Run	-13.9313
▁blossoms	-13.9323
▁ordering	-13.9326
▁Johna	-13.9338
▁hammered	-13.9338
▁str	-13.9338
▁sizzle	-13.9342
▁Start	-13.9347
▁Work	-13.9361
▁La	-13.9371
▁ra	-13.9407
▁ramps	-13.9427
▁Whi	-13.9437
▁conflicts	-13.9443
enthusiastically	-13.9465
lung	-13.9533
▁bl	-13.9538
end	-13.9541
▁shuffle	-13.9554
Her	-13.9654
erry	-13.9654
▁demonstrate	-13.969
lic	-13.9725
eyed	-13.974
▁dis	-13.9781
▁pr	-13.9806
iel	-13.9873
▁snip	-13.9901
sper	-13.9924
pow	-13.9933
▁sc	-13.9984
board	-14.0011
rry	-14.0016
œHe	-14.0037
Gla	-14.0182
▁whe	-14.0184
▁pal	-14.0216
▁Cookie	-14.0223
▁skate	-14.0223
▁habit	-14.0224
▁ripple	-14.0224
▁stalk	-14.0225
▁tale	-14.0225
▁chugg	-14.0236
smi	-14.0248
line	-14.0258
Zoo	-14.0258
▁Robo	-14.0258
anna	-14.0262
ula	-14.0264
▁total	-14.0269
Play	-14.0276
place	-14.0277
Move	-14.0277
New	-14.0277
Close	-14.0277
under	-14.0278
smelling	-14.0278
Doggy	-14.0279
ripe	-14.0279
Polly	-14.0279
Susie	-14.0279
Say	-14.0279
Duck	-14.0279
Only	-14.028
off	-14.0281
▁Any	-14.0288
Sun	-14.0289
nnie	-14.0291
▁releas	-14.0291
▁achiev	-14.0294
▁arrest	-14.0294
▁gulp	-14.0294
▁wilt	-14.0294
▁drown	-14.0294
▁disappoint	-14.0294
▁collapse	-14.0294
▁concentrate	-14.0295
tealing	-14.0296
▁timid	-14.0297
▁equal	-14.0297
▁correct	-14.0297
▁exact	-14.0297
chool	-14.0297
▁Flops	-14.0297
▁thirst	-14.0297
▁plea	-14.0298
▁Marti	-14.0298
uriosity	-14.0298
▁surge	-14.0298
▁Turt	-14.0298
▁Sign	-14.0298
▁America	-14.0298
▁Un	-14.0298
▁background	-14.0298
▁channel	-14.0298
▁combination	-14.0298
▁compost	-14.0298
▁cowgirl	-14.0298
▁critter	-14.0298
▁croissant	-14.0298
▁entertain	-14.0298
▁jiggle	-14.0298
▁separating	-14.0298
▁sunburn	-14.0298
▁tusks	-14.0298
Banana	-14.0298
Blech	-14.0298
▁Alfie	-14.0298
▁Amber	-14.0298
▁Arnold	-14.0298
▁Arrow	-14.0298
▁Ayla	-14.0298
▁Bailey	-14.0298
▁Bethany	-14.0298
▁Brenda	-14.0298
▁Chud	-14.0298
▁Clifford	-14.0298
▁Darryl	-14.0298
▁Diana	-14.0298
▁Dylan	-14.0298
▁Elizabeth	-14.0298
▁Emmi	-14.0298
▁English	-14.0298
▁Fierce	-14.0298
▁Gavin	-14.0298
▁Grover	-14.0298
▁Gwen	-14.0298
▁Hippo	-14.0298
▁Horsy	-14.0298
▁Jeffrey	-14.0298
▁Mason	-14.0298
▁Nibbles	-14.0298
▁Painter	-14.0298
▁Pico	-14.0298
▁Purr	-14.0298
▁Puss	-14.0298
▁Sissy	-14.0298
▁Smiling	-14.0298
▁Spud	-14.0298
▁Swimming	-14.0298
▁Twig	-14.0298
▁Twin	-14.0298
▁Vivian	-14.0298
▁Wiggly	-14.0298
▁Wilbur	-14.0298
▁Wormie	-14.0298
▁Yellow	-14.0298
▁abandoned	-14.0298
▁arriving	-14.0298
▁autumn	-14.0298
▁boundaries	-14.0298
▁cacti	-14.0298
▁carpenter	-14.0298
▁cheetah	-14.0298
▁colony	-14.0298
▁competing	-14.0298
▁controller	-14.0298
▁enclosure	-14.0298
▁explanation	-14.0298
▁features	-14.0298
▁graze	-14.0298
▁halo	-14.0298
▁headphones	-14.0298
▁hydrant	-14.0298
▁impact	-14.0298
▁jaws	-14.0298
▁junior	-14.0298
▁kennel	-14.0298
▁ladies	-14.0298
▁liar	-14.0298
▁liking	-14.0298
▁pavement	-14.0298
▁receiving	-14.0298
▁rollercoaster	-14.0298
▁seahorse	-14.0298
▁shriek	-14.0298
▁sidelines	-14.0298
▁snuggly	-14.0298
▁substitute	-14.0298
▁sundae	-14.0298
▁teenager	-14.0298
▁troll	-14.0298
▁tutu	-14.0298
▁ungrateful	-14.0298
▁unlucky	-14.0298
▁̃I	-14.0298
▁Biff	-14.0298
▁cannon	-14.0298
▁guidance	-14.0298
▁plunge	-14.0298
▁scann	-14.0298
▁Randy	-14.0298
▁Snowball	-14.0298
▁̃Let	-14.0298
▁contentedly	-14.0298
▁biking	-14.0298
▁melodies	-14.0298
▁Jub	-14.0298
▁Past	-14.0298
▁Zippo	-14.0298
▁horrible	-14.0298
œSo	-14.0298
▁blurry	-14.0298
Eww	-14.0298
▁Sister	-14.0298
▁Dougie	-14.0298
▁Last	-14.0298
▁potty	-14.0298
Golf	-14.0298
▁steadily	-14.0298
▁Blow	-14.0299
▁host	-14.0299
▁gumball	-14.0299
▁Willow	-14.0299
▁tablecloth	-14.0299
▁Cable	-14.0299
▁Letty	-14.0299
▁cancel	-14.0299
▁tagged	-14.0299
▁pasture	-14.0299
▁Jog	-14.03
▁Croco	-14.03
Number	-14.03
▁30	-14.03
▁Flashy	-14.03
▁Scotty	-14.03
▁puffy	-14.03
▁twitching	-14.0301
▁pounding	-14.0301
▁mustard	-14.0301
▁Swan	-14.0302
▁shifted	-14.0302
▁Jing	-14.0302
▁erupted	-14.0303
▁Gogo	-14.0303
▁Bloom	-14.0303
▁pinches	-14.0303
▁Pass	-14.0304
▁discussion	-14.0304
▁squashes	-14.0305
▁Squeak	-14.0306
▁stubbornness	-14.0306
▁Whistl	-14.0307
œDad	-14.0308
▁Sale	-14.0308
▁Dragon	-14.0309
▁Swing	-14.0309
Friends	-14.0309
Nap	-14.031
▁leaping	-14.0311
mall	-14.0311
▁somehow	-14.0311
▁dribbl	-14.0314
▁shooter	-14.0314
▁donation	-14.0316
œBecause	-14.0318
▁pinchy	-14.0321
▁NO	-14.0321
▁dam	-14.0326
▁ABCs	-14.0329
œThey	-14.0329
▁Maxine	-14.0333
▁boomed	-14.0342
▁peeling	-14.0345
▁contained	-14.0348
œStop	-14.035
▁Robot	-14.0351
▁mitts	-14.0355
▁clips	-14.0364
▁Ross	-14.0364
Meet	-14.0369
▁settl	-14.0383
▁fewer	-14.0387
ents	-14.0407
▁blessings	-14.0408
whee	-14.041
▁praises	-14.0426
▁produce	-14.0431
Ahh	-14.0432
▁Root	-14.0433
▁cracking	-14.0435
ug	-14.0436
▁bandaged	-14.0436
▁memor	-14.044
▁scenes	-14.0444
vely	-14.0446
▁soothe	-14.0456
▁Sour	-14.0463
▁bal	-14.0471
Choose	-14.0519
ia	-14.0595
▁fixer	-14.0605
▁ski	-14.0689
mazingly	-14.0723
▁pu	-14.073
▁ri	-14.0789
ston	-14.0791
▁Mica	-14.0802
pin	-14.0871
▁chant	-14.1
▁Cour	-14.1002
arry	-14.1046
lessly	-14.1143
▁fla	-14.1143
andy	-14.1157
▁comp	-14.118
▁donate	-14.1185
▁unwrap	-14.1205
unch	-14.1292
hen	-14.1342
mine	-14.1388
▁Mon	-14.1408
▁clip	-14.1471
▁Ros	-14.1472
▁option	-14.1473
▁sleeve	-14.1476
▁backward	-14.1478
▁plank	-14.1484
▁Friend	-14.1487
where	-14.1493
ora	-14.15
ower	-14.1516
▁J	-14.152
love	-14.1525
zoom	-14.1526
friend	-14.1527
Should	-14.1528
Fish	-14.1528
Imagine	-14.1528
aware	-14.1528
Buzz	-14.1529
Miss	-14.1529
pitched	-14.1529
Emily	-14.1529
Hoppy	-14.1529
Alice	-14.1529
filled	-14.1529
play	-14.1529
Jake	-14.1529
wow	-14.1529
woof	-14.1529
Rose	-14.153
fish	-14.1531
they	-14.1534
printed	-14.1537
▁sneez	-14.1538
▁Whe	-14.1542
▁brew	-14.1544
▁fulfill	-14.1544
▁doze	-14.1544
▁concern	-14.1544
guar	-14.1544
▁pluck	-14.1545
ible	-14.1545
fted	-14.1545
▁shift	-14.1546
▁clums	-14.1547
▁report	-14.1548
▁cash	-14.1548
▁effect	-14.1548
▁Moira	-14.1548
▁Trouble	-14.1548
▁basic	-14.1548
▁chomp	-14.1548
▁churn	-14.1548
▁clover	-14.1548
▁doubt	-14.1548
▁noddle	-14.1548
▁preparation	-14.1548
▁scuttl	-14.1548
▁session	-14.1548
▁sketch	-14.1548
▁violet	-14.1548
▁volume	-14.1548
Almost	-14.1548
ING	-14.1548
Patience	-14.1548
Relax	-14.1548
Ruff	-14.1548
Slide	-14.1548
folk	-14.1548
graph	-14.1548
▁Acceptor	-14.1548
▁Albertina	-14.1548
▁Alonzo	-14.1548
▁Anchor	-14.1548
▁Audrey	-14.1548
▁Blocks	-14.1548
▁Blossom	-14.1548
▁Bryan	-14.1548
▁Bumpy	-14.1548
▁Chantelle	-14.1548
▁Chirpie	-14.1548
▁Clarissa	-14.1548
▁Clem	-14.1548
▁Deedee	-14.1548
▁Dolphin	-14.1548
▁Dusty	-14.1548
▁Eagle	-14.1548
▁Edward	-14.1548
▁Faith	-14.1548
▁Fleck	-14.1548
▁Gabe	-14.1548
▁Gorilla	-14.1548
▁Grumpy	-14.1548
▁Harper	-14.1548
▁House	-14.1548
▁Mazzy	-14.1548
▁Meri	-14.1548
▁Motor	-14.1548
▁Mushroom	-14.1548
▁Mustache	-14.1548
▁Pipsqueak	-14.1548
▁Pudding	-14.1548
▁Rabbie	-14.1548
▁Rupert	-14.1548
▁Scarlett	-14.1548
▁Suki	-14.1548
▁Taco	-14.1548
▁Tinu	-14.1548
▁Wilson	-14.1548
▁accessories	-14.1548
▁accurate	-14.1548
▁adored	-14.1548
▁advantage	-14.1548
▁announcement	-14.1548
▁appetite	-14.1548
▁briefcase	-14.1548
▁bristles	-14.1548
▁challenging	-14.1548
▁crazie	-14.1548
▁eyeshadow	-14.1548
▁handkerchief	-14.1548
▁massive	-14.1548
▁moderation	-14.1548
▁parlor	-14.1548
▁persisted	-14.1548
▁rainstorm	-14.1548
▁remarkable	-14.1548
▁salmon	-14.1548
▁soggy	-14.1548
▁techn	-14.1548
▁teddies	-14.1548
▁terror	-14.1548
▁trousers	-14.1548
▁twinkly	-14.1548
▁typing	-14.1548
▁unharmed	-14.1548
▁wondrous	-14.1548
9	-14.1548
▁Celi	-14.1548
▁Sharin	-14.1548
▁Whale	-14.1548
▁granny	-14.1548
▁policemen	-14.1548
Gently	-14.1548
▁Aya	-14.1548
▁Farley	-14.1548
▁mound	-14.1548
ceeded	-14.1548
▁Mindy	-14.1548
▁Wilma	-14.1548
▁speechless	-14.1548
▁oink	-14.1548
▁glory	-14.1548
▁Bright	-14.1548
▁Curry	-14.1548
▁Nut	-14.1548
▁habitat	-14.1548
▁swipe	-14.1548
▁Goldie	-14.1548
▁instructor	-14.1548
▁surgery	-14.1548
▁wailed	-14.1548
▁Brianne	-14.1548
Aww	-14.1548
▁Gilly	-14.1548
▁curry	-14.1548
▁Cheri	-14.1548
▁Cari	-14.1548
▁Pig	-14.1548
▁Janelle	-14.1548
Cool	-14.1548
OU	-14.1548
▁Pippy	-14.1548
▁Pan	-14.1548
▁Sheep	-14.1548
▁hornet	-14.1549
▁Kni	-14.1549
▁postbox	-14.1549
▁Strongy	-14.1549
▁Theresa	-14.1549
▁Nappy	-14.1549
OO	-14.1549
▁connection	-14.1549
▁pest	-14.1549
▁yanked	-14.1549
▁Minty	-14.155
▁silky	-14.155
▁Far	-14.155
▁timidly	-14.155
▁copies	-14.155
▁cure	-14.155
▁Pipo	-14.155
▁Gold	-14.155
▁elsewhere	-14.155
▁protective	-14.155
Shrink	-14.1551
▁Word	-14.1551
▁fooled	-14.1551
▁invent	-14.1551
▁flickering	-14.1551
▁reality	-14.1552
▁itches	-14.1552
▁Dinosaur	-14.1552
▁owie	-14.1553
▁acrobats	-14.1554
▁toppl	-14.1554
▁Beef	-14.1554
▁Treasure	-14.1555
▁limping	-14.1555
▁thrilling	-14.1556
▁jailer	-14.1556
▁gracefulness	-14.1556
▁classes	-14.1557
▁mailboxes	-14.1557
Rice	-14.1557
▁thoughtfulness	-14.1558
▁flowed	-14.1559
Four	-14.156
▁puffing	-14.1561
▁securely	-14.1561
▁jeweler	-14.1563
▁March	-14.1563
▁rudeness	-14.1564
▁smoothness	-14.1565
▁confidently	-14.1565
▁entirely	-14.1566
kie	-14.1567
▁shaker	-14.1567
œMe	-14.1572
▁Close	-14.1572
hold	-14.1572
▁dandelions	-14.1573
Um	-14.1576
Pay	-14.1578
▁ros	-14.1583
ica	-14.1585
▁brighten	-14.1592
▁shortly	-14.1592
▁Sir	-14.1594
making	-14.1596
Woo	-14.1605
▁darkest	-14.1609
ancing	-14.1612
▁losers	-14.1613
▁sung	-14.1614
boom	-14.1618
▁options	-14.1623
▁planks	-14.1623
▁Touch	-14.1631
▁skates	-14.1633
▁Cookies	-14.1633
▁Gu	-14.165
▁roo	-14.1657
▁stormy	-14.1664
▁thoughtfully	-14.1665
Pow	-14.1668
▁Shark	-14.1669
▁steaming	-14.1672
▁dusting	-14.168
▁marvell	-14.1685
▁judged	-14.1688
œS	-14.1702
▁wildly	-14.1707
Higher	-14.1718
Flour	-14.1725
▁eater	-14.1726
ttered	-14.1739
lier	-14.1805
ammy	-14.1829
Pop	-14.1831
rious	-14.1868
ixing	-14.19
▁fetche	-14.1915
tended	-14.1996
▁Cor	-14.2196
ellie	-14.2199
rung	-14.2203
eel	-14.2204
▁Lo	-14.2238
▁endless	-14.2248
▁prance	-14.226
J	-14.2313
▁crashe	-14.2378
▁swatt	-14.2479
anie	-14.2502
▁Move	-14.2611
ice	-14.2625
▁mixe	-14.2677
bra	-14.2713
iver	-14.2732
▁bu	-14.2747
Was	-14.277
▁Shar	-14.2809
œAh	-14.2811
minded	-14.2844
althy	-14.2886
▁mitt	-14.2903
how	-14.2904
▁jack	-14.2904
▁crop	-14.2905
▁detail	-14.2906
▁footprint	-14.2906
▁outdoor	-14.2906
bbed	-14.2913
▁loser	-14.2928
▁grea	-14.2938
▁ki	-14.2942
free	-14.2955
book	-14.2955
Â	-14.2956
Magic	-14.2956
Beetle	-14.2956
necessary	-14.2957
Pizza	-14.2957
hand	-14.2957
Pink	-14.2957
paper	-14.2957
Love	-14.2957
happy	-14.2957
People	-14.2957
reverse	-14.2957
Millie	-14.2957
drop	-14.2957
George	-14.2957
check	-14.2957
3	-14.2957
good	-14.2957
grow	-14.2957
Peter	-14.2957
okay	-14.2957
Bella	-14.2958
jar	-14.2958
May	-14.2959
guard	-14.2961
star	-14.2962
aving	-14.2963
▁bless	-14.2968
▁boar	-14.297
▁exist	-14.2972
▁scowl	-14.2973
▁bobb	-14.2973
▁squint	-14.2973
▁Kin	-14.2973
▁practise	-14.2973
▁arrange	-14.2973
▁cluck	-14.2973
▁chuckle	-14.2973
▁hesitate	-14.2973
▁Elli	-14.2975
▁Louis	-14.2975
creen	-14.2975
▁Jessi	-14.2975
ugar	-14.2975
▁grocer	-14.2976
▁greed	-14.2976
▁guilt	-14.2976
▁Susa	-14.2976
▁Napp	-14.2976
arriage	-14.2976
▁Croc	-14.2976
▁Trix	-14.2977
isappointed	-14.2977
▁react	-14.2977
▁Annabel	-14.2977
radually	-14.2977
urple	-14.2977
ayla	-14.2977
cious	-14.2977
pplied	-14.2977
▁errand	-14.2977
▁sentence	-14.2977
Basil	-14.2977
Careful	-14.2977
Diamond	-14.2977
Feather	-14.2977
Greetings	-14.2977
Honk	-14.2977
Neigh	-14.2977
Parrot	-14.2977
Poison	-14.2977
Potato	-14.2977
Woah	-14.2977
arranging	-14.2977
▁911	-14.2977
▁Adele	-14.2977
▁Adriana	-14.2977
▁Angelina	-14.2977
▁Animals	-14.2977
▁Astrid	-14.2977
▁Bernie	-14.2977
▁Blinky	-14.2977
▁Braveheart	-14.2977
▁Brooke	-14.2977
▁Buffy	-14.2977
▁Callie	-14.2977
▁Chicken	-14.2977
▁Cloe	-14.2977
▁Crystal	-14.2977
▁Cubby	-14.2977
▁Cubey	-14.2977
▁Deaf	-14.2977
▁Delighted	-14.2977
▁Dependable	-14.2977
▁Elena	-14.2977
▁Elin	-14.2977
▁Forget	-14.2977
▁Froggie	-14.2977
▁Gertie	-14.2977
▁Hippy	-14.2977
▁Hunter	-14.2977
▁Kai	-14.2977
▁Kari	-14.2977
▁Lala	-14.2977
▁Leticia	-14.2977
▁Lillie	-14.2977
▁Madelyn	-14.2977
▁Marlon	-14.2977
▁Marta	-14.2977
▁Melody	-14.2977
▁Mild	-14.2977
▁Monday	-14.2977
▁Morris	-14.2977
▁Paco	-14.2977
▁Pancake	-14.2977
▁Peaches	-14.2977
▁Prissy	-14.2977
▁Puffy	-14.2977
▁Renee	-14.2977
▁Rhythm	-14.2977
▁Sabina	-14.2977
▁Selina	-14.2977
▁Settle	-14.2977
▁Squeeker	-14.2977
▁Sully	-14.2977
▁Tane	-14.2977
▁Tickles	-14.2977
▁Tini	-14.2977
▁Vito	-14.2977
▁Zog	-14.2977
▁addition	-14.2977
▁advise	-14.2977
▁afloat	-14.2977
▁alphabet	-14.2977
▁antennae	-14.2977
▁balcony	-14.2977
▁beanstalk	-14.2977
▁benefi	-14.2977
▁border	-14.2977
▁chameleon	-14.2977
▁clambered	-14.2977
▁collage	-14.2977
▁compartment	-14.2977
▁corridor	-14.2977
▁despair	-14.2977
▁devour	-14.2977
▁drape	-14.2977
▁eachother	-14.2977
▁envy	-14.2977
▁fidget	-14.2977
▁fingertips	-14.2977
▁fizz	-14.2977
▁flamingo	-14.2977
▁glacier	-14.2977
▁grapefruit	-14.2977
▁grazing	-14.2977
▁harmonica	-14.2977
▁imaginative	-14.2977
▁jigsaw	-14.2977
▁joey	-14.2977
▁kilos	-14.2977
▁lightbulb	-14.2977
▁location	-14.2977
▁motorbike	-14.2977
▁obedience	-14.2977
▁omelet	-14.2977
▁overnight	-14.2977
▁padlock	-14.2977
▁plump	-14.2977
▁privacy	-14.2977
▁productive	-14.2977
▁protest	-14.2977
▁research	-14.2977
▁sample	-14.2977
▁sheepishly	-14.2977
▁snowstorm	-14.2977
▁streak	-14.2977
▁stubb	-14.2977
▁studies	-14.2977
▁stump	-14.2977
▁stylish	-14.2977
▁tackle	-14.2977
▁tender	-14.2977
▁territory	-14.2977
▁trace	-14.2977
▁trustworthy	-14.2977
▁uneasy	-14.2977
▁unstuck	-14.2977
▁volunteer	-14.2977
▁zone	-14.2977
Butterfly	-14.2977
Print	-14.2977
▁Tidy	-14.2977
▁blind	-14.2977
▁obvious	-14.2977
▁official	-14.2977
▁potential	-14.2977
▁select	-14.2977
▁Beartie	-14.2977
▁Biggs	-14.2977
▁Lazy	-14.2977
▁Radish	-14.2977
▁funnier	-14.2977
▁misbehave	-14.2977
▁sledding	-14.2977
▁whirred	-14.2977
▁Lanny	-14.2977
▁dozing	-14.2977
▁Belle	-14.2977
▁Sheila	-14.2977
▁fragrance	-14.2977
▁carving	-14.2977
▁dedication	-14.2977
▁gown	-14.2977
▁Gara	-14.2977
▁Jamel	-14.2977
▁grumpier	-14.2977
Surf	-14.2977
▁Smiles	-14.2977
▁Trixie	-14.2977
▁director	-14.2977
▁Bath	-14.2977
▁Golden	-14.2977
▁Vince	-14.2977
▁Seto	-14.2977
▁Finders	-14.2977
▁popper	-14.2977
▁stray	-14.2977
▁tingly	-14.2977
▁chalkboard	-14.2977
▁Sora	-14.2977
▁unwell	-14.2977
▁constantly	-14.2977
▁spicie	-14.2977
▁tourist	-14.2977
▁captivated	-14.2977
▁dozen	-14.2977
▁fifty	-14.2977
▁pedalling	-14.2977
▁Pole	-14.2977
▁Ball	-14.2977
▁shoreline	-14.2977
▁fancie	-14.2977
▁wonderland	-14.2977
▁Bluebird	-14.2978
▁divided	-14.2978
▁shaving	-14.2978
▁Goldy	-14.2978
▁Suna	-14.2978
▁Marcy	-14.2978
▁disc	-14.2978
▁quarrelling	-14.2978
▁Mack	-14.2978
▁obliged	-14.2978
▁Wand	-14.2978
▁Lorraine	-14.2978
▁fortune	-14.2978
▁droopy	-14.2979
▁Gray	-14.2979
easing	-14.2979
▁former	-14.2979
▁Danielle	-14.2979
▁Toad	-14.2979
▁Marianna	-14.2979
▁projector	-14.2979
▁clothesline	-14.2979
lise	-14.2979
▁whiteboard	-14.2979
▁bun	-14.2979
▁grunted	-14.298
▁prey	-14.298
▁described	-14.298
▁stumbling	-14.298
erri	-14.298
▁existed	-14.2981
▁Greed	-14.2981
▁owlet	-14.2981
▁marchers	-14.2981
▁7	-14.2982
▁Bitter	-14.2982
▁Milk	-14.2982
▁cran	-14.2982
▁brewing	-14.2982
▁Drop	-14.2982
▁nursery	-14.2982
▁Ren	-14.2982
▁arrested	-14.2982
▁chugged	-14.2982
Gas	-14.2983
▁lifetime	-14.2983
▁ripest	-14.2983
▁require	-14.2983
œMum	-14.2984
▁ahh	-14.2984
▁Yield	-14.2985
▁Flower	-14.2985
▁Match	-14.2985
▁approaching	-14.2985
▁screeched	-14.2985
▁bruised	-14.2985
▁eng	-14.2985
▁sis	-14.2985
▁pence	-14.2986
▁surprisingly	-14.2986
▁harvested	-14.2987
œOne	-14.2987
▁Tonya	-14.2987
Grab	-14.2987
▁forgetful	-14.2989
▁cactuses	-14.2989
▁ticked	-14.299
▁workman	-14.2991
▁spotless	-14.2991
▁juggled	-14.2991
▁Bug	-14.2991
▁sprinkler	-14.2992
▁survived	-14.2992
▁sweeping	-14.2994
there	-14.2994
▁Â	-14.2998
▁Ama	-14.2999
▁Gre	-14.3001
▁erased	-14.3002
▁pity	-14.3003
Marry	-14.3003
▁New	-14.3004
▁richer	-14.3005
œBye	-14.3005
▁Ping	-14.3006
ridge	-14.3007
▁clearer	-14.3007
▁clink	-14.301
▁Itsy	-14.3018
▁anybody	-14.3019
Salad	-14.3025
▁quitting	-14.3027
dled	-14.3031
Boom	-14.3034
▁fairer	-14.3034
▁Moni	-14.3035
▁vanishing	-14.3036
▁difficulty	-14.3038
!'"	-14.3043
▁peddle	-14.3043
▁Mand	-14.3047
▁Andi	-14.305
Teacher	-14.3063
▁ga	-14.3066
nted	-14.3068
▁clu	-14.3073
onths	-14.3084
▁sprayer	-14.3086
lick	-14.3123
new	-14.3125
▁faithful	-14.3147
Sail	-14.316
Wake	-14.328
inner	-14.3338
cou	-14.3362
Wheee	-14.3391
▁loo	-14.3471
nic	-14.3476
lack	-14.3513
ippe	-14.3518
▁strap	-14.3722
▁pranc	-14.3763
ooking	-14.3781
late	-14.3864
asting	-14.3868
woo	-14.3892
▁wagg	-14.3894
▁tradesm	-14.3924
ingling	-14.4037
▁sniffl	-14.4079
œD	-14.4204
▁rattl	-14.4207
ole	-14.4328
▁fro	-14.4347
cked	-14.4381
ncient	-14.4383
bout	-14.4385
▁Wi	-14.4426
▁Cl	-14.4444
▁scribbl	-14.4484
▁pil	-14.4515
œC	-14.4526
▁lu	-14.4557
▁pound	-14.4568
▁shoelace	-14.457
▁manner	-14.4572
espect	-14.4578
ilda	-14.4587
came	-14.4599
bled	-14.461
ship	-14.4612
orrow	-14.4616
eight	-14.4621
March	-14.4623
Pass	-14.4623
rash	-14.4623
ouchy	-14.4623
Tell	-14.4623
Count	-14.4623
Elephant	-14.4623
Juice	-14.4623
Yoga	-14.4623
Turn	-14.4623
Peace	-14.4623
Tree	-14.4624
Right	-14.4624
Pretty	-14.4624
Aunt	-14.4624
Fox	-14.4624
applaud	-14.4624
Oink	-14.4624
wait	-14.4624
Luna	-14.4624
six	-14.4624
Brownie	-14.4624
Snowy	-14.4624
Ellie	-14.4624
Grace	-14.4624
measure	-14.4624
wished	-14.4624
because	-14.4624
together	-14.4624
pool	-14.4624
who	-14.4624
Big	-14.4624
shore	-14.4624
Blue	-14.4625
Over	-14.4626
stable	-14.4628
▁twitch	-14.4635
▁Bloo	-14.4635
▁flicker	-14.4636
▁judg	-14.4637
▁daydream	-14.4639
▁honor	-14.4639
Bees	-14.4639
▁fool	-14.4639
▁gla	-14.4639
▁whimper	-14.4639
▁describe	-14.4639
▁curse	-14.4639
œYum	-14.4639
▁grumble	-14.464
▁frost	-14.464
▁reassure	-14.464
▁involve	-14.464
▁twi	-14.464
▁lou	-14.464
▁Smok	-14.4641
▁Mik	-14.4641
▁whil	-14.4641
trike	-14.4642
tupid	-14.4642
▁reassuring	-14.4642
▁Nel	-14.4642
▁glo	-14.4642
▁Cloud	-14.4642
▁Strong	-14.4642
▁creep	-14.4642
▁Chew	-14.4643
▁Daniell	-14.4643
xercise	-14.4643
▁numb	-14.4643
▁easie	-14.4643
ique	-14.4643
▁Color	-14.4643
▁Slow	-14.4643
▁speech	-14.4643
coon	-14.4643
ject	-14.4643
▁Luck	-14.4643
Bounc	-14.4643
osquitoes	-14.4643
tchen	-14.4643
▁Explor	-14.4643
▁contract	-14.4643
▁diaper	-14.4643
▁lolly	-14.4643
▁majesty	-14.4643
▁pinecone	-14.4643
▁trespass	-14.4643
Adventure	-14.4643
Lincoln	-14.4643
Magdalene	-14.4643
Police	-14.4643
Repeat	-14.4643
Success	-14.4643
Surrender	-14.4643
Whoosh	-14.4643
Yep	-14.4643
lantern	-14.4643
ntrigued	-14.4643
▁Aimee	-14.4643
▁Alligator	-14.4643
▁Allowed	-14.4643
▁Barbara	-14.4643
▁Bernard	-14.4643
▁Bibo	-14.4643
▁Blake	-14.4643
▁Bunbun	-14.4643
▁Casey	-14.4643
▁Caterpillar	-14.4643
▁Chomper	-14.4643
▁Christine	-14.4643
▁Club	-14.4643
▁Cream	-14.4643
▁Darling	-14.4643
▁Debbie	-14.4643
▁Dippy	-14.4643
▁Eager	-14.4643
▁Easter	-14.4643
▁Fabian	-14.4643
▁Face	-14.4643
▁Fifi	-14.4643
▁French	-14.4643
▁Fruit	-14.4643
▁Gene	-14.4643
▁Ghost	-14.4643
▁Greta	-14.4643
▁Half	-14.4643
▁Harmony	-14.4643
▁Harvey	-14.4643
▁Hugo	-14.4643
▁Isaac	-14.4643
▁Jesus	-14.4643
▁Lamb	-14.4643
▁Lassie	-14.4643
▁Lexi	-14.4643
▁Lucia	-14.4643
▁Mallory	-14.4643
▁Marla	-14.4643
▁Miraculously	-14.4643
▁Monster	-14.4643
▁Navy	-14.4643
▁Nicola	-14.4643
▁Niki	-14.4643
▁Petunia	-14.4643
▁Plop	-14.4643
▁Rubber	-14.4643
▁Sarina	-14.4643
▁Simba	-14.4643
▁Skelly	-14.4643
▁Snuffy	-14.4643
▁Splodge	-14.4643
▁Story	-14.4643
▁Swimmy	-14.4643
▁Taz	-14.4643
▁Tizzy	-14.4643
▁Truck	-14.4643
▁Trudy	-14.4643
▁Wolf	-14.4643
▁accompany	-14.4643
▁aquarium	-14.4643
▁awkward	-14.4643
▁banner	-14.4643
▁barnyard	-14.4643
▁cavity	-14.4643
▁chandelier	-14.4643
▁charity	-14.4643
▁confront	-14.4643
▁dawn	-14.4643
▁dazzl	-14.4643
▁diligently	-14.4643
▁disbelief	-14.4643
▁ecstatic	-14.4643
▁eighteen	-14.4643
▁essential	-14.4643
▁eternity	-14.4643
▁explosion	-14.4643
▁fishermen	-14.4643
▁fourteen	-14.4643
▁giddy	-14.4643
▁gigantic	-14.4643
▁hairstyle	-14.4643
▁handiwork	-14.4643
▁hilarious	-14.4643
▁hippopotamus	-14.4643
▁horrified	-14.4643
▁hungrily	-14.4643
▁identify	-14.4643
▁imitate	-14.4643
▁intense	-14.4643
▁jersey	-14.4643
▁junkyard	-14.4643
▁kernels	-14.4643
▁kettle	-14.4643
▁knead	-14.4643
▁lazily	-14.4643
▁merrily	-14.4643
▁minu	-14.4643
▁muttered	-14.4643
▁naughtiness	-14.4643
▁nineteen	-14.4643
▁nymph	-14.4643
▁oars	-14.4643
▁opportunities	-14.4643
▁paperclip	-14.4643
▁parcel	-14.4643
▁persuade	-14.4643
▁phrase	-14.4643
▁pitchfork	-14.4643
▁pleading	-14.4643
▁porcupine	-14.4643
▁propeller	-14.4643
▁pruning	-14.4643
▁recently	-14.4643
▁rectangle	-14.4643
▁relatives	-14.4643
▁replies	-14.4643
▁rowboat	-14.4643
▁rummag	-14.4643
▁rumour	-14.4643
▁seventeen	-14.4643
▁slug	-14.4643
▁snarling	-14.4643
▁spectacular	-14.4643
▁squiggl	-14.4643
▁strands	-14.4643
▁stressed	-14.4643
▁subjects	-14.4643
▁submarine	-14.4643
▁subtract	-14.4643
▁summit	-14.4643
▁summon	-14.4643
▁tadpole	-14.4643
▁teammates	-14.4643
▁tennis	-14.4643
▁thirteen	-14.4643
▁tiles	-14.4643
▁title	-14.4643
▁tradition	-14.4643
▁trek	-14.4643
▁uncertain	-14.4643
▁unscrew	-14.4643
▁upstream	-14.4643
▁wildebeest	-14.4643
*	-14.4643
6	-14.4643
Spray	-14.4643
▁Jia	-14.4643
▁Margo	-14.4643
▁Mario	-14.4643
▁attentive	-14.4643
▁disrupt	-14.4643
▁ferocious	-14.4643
▁generation	-14.4643
▁similar	-14.4643
▁Connie	-14.4643
▁Flip	-14.4643
▁Reddy	-14.4643
▁breathtaking	-14.4643
▁crooked	-14.4643
▁quiver	-14.4643
▁skeptical	-14.4643
▁extinguisher	-14.4643
▁Guard	-14.4643
▁mummies	-14.4643
▁passageway	-14.4643
Bike	-14.4643
▁Bark	-14.4643
▁Driver	-14.4643
▁spinner	-14.4643
▁Jin	-14.4643
▁intentions	-14.4643
Prunes	-14.4643
▁knitted	-14.4643
▁poof	-14.4643
▁Franny	-14.4643
▁Perry	-14.4643
▁Hana	-14.4643
▁Rod	-14.4643
▁Jacklyn	-14.4643
▁Set	-14.4643
▁Seth	-14.4643
▁fatter	-14.4643
▁Alina	-14.4643
▁unplug	-14.4643
▁clipped	-14.4643
▁Jase	-14.4644
▁agent	-14.4644
▁Dinah	-14.4644
▁Hanna	-14.4644
▁vain	-14.4644
▁Shauna	-14.4644
▁cob	-14.4644
▁Elise	-14.4644
▁Peepers	-14.4644
▁gleefully	-14.4644
▁Rot	-14.4644
▁Shop	-14.4644
▁Cally	-14.4644
assured	-14.4644
▁reporter	-14.4644
▁echoes	-14.4644
▁glanc	-14.4644
▁wrinkly	-14.4644
▁blender	-14.4644
▁grave	-14.4644
▁strutt	-14.4644
▁Boop	-14.4644
▁Fisher	-14.4644
▁Pen	-14.4644
▁Rocker	-14.4644
▁improvement	-14.4644
▁tastier	-14.4644
▁Cass	-14.4644
▁neglected	-14.4645
▁Dino	-14.4645
▁Ellen	-14.4645
▁storyteller	-14.4645
Part	-14.4645
▁buzzes	-14.4645
▁hopper	-14.4645
▁Moley	-14.4645
▁choked	-14.4645
▁boasted	-14.4645
▁tidier	-14.4646
▁Cake	-14.4646
ama	-14.4646
▁panel	-14.4646
▁Goosey	-14.4646
▁bleated	-14.4646
▁threatening	-14.4646
▁Mit	-14.4646
▁flatten	-14.4646
▁handyman	-14.4647
Clap	-14.4647
▁daydreaming	-14.4648
▁swell	-14.4648
▁flickered	-14.4648
œLucy	-14.4648
▁Pillow	-14.4648
▁turnip	-14.4649
▁Ugly	-14.4649
▁fulfilled	-14.4649
Grape	-14.4649
▁trim	-14.4649
▁auntie	-14.465
▁avail	-14.465
▁squealing	-14.4651
▁chattering	-14.4653
▁squawking	-14.4653
œhello	-14.4653
mail	-14.4653
▁Jose	-14.4653
▁Chocolate	-14.4653
▁Home	-14.4653
▁jingled	-14.4653
▁justice	-14.4654
▁neighed	-14.4654
nowing	-14.4654
▁hopeless	-14.4654
▁relaxes	-14.4655
▁sparkler	-14.4655
▁Zap	-14.4657
▁crosses	-14.466
▁puffed	-14.466
▁Cam	-14.4661
▁Simone	-14.4662
▁Greene	-14.4663
▁dye	-14.4663
▁breakable	-14.4663
▁pondered	-14.4663
▁neater	-14.4665
iving	-14.4667
▁nighttime	-14.4667
Show	-14.4668
very	-14.4668
▁tweeting	-14.4672
▁Ring	-14.4673
ative	-14.4682
▁Best	-14.4684
Round	-14.4692
▁cooker	-14.4694
▁brake	-14.4697
proof	-14.471
bri	-14.4714
▁exp	-14.4771
ireworks	-14.4774
œH	-14.4775
Lost	-14.478
▁Ju	-14.4837
Cut	-14.5032
hol	-14.5117
ries	-14.5121
▁pi	-14.5287
▁tha	-14.5336
▁Fl	-14.535
ourage	-14.544
rent	-14.5487
gged	-14.549
▁demonstrat	-14.566
unny	-14.5742
zip	-14.5781
▁Fores	-14.5785
lapped	-14.5791
yman	-14.5836
agn	-14.5891
Mix	-14.5911
uddled	-14.5967
knowingly	-14.6031
beams	-14.6042
▁cra	-14.6106
Soup	-14.6132
sized	-14.6139
Ti	-14.617
teri	-14.6173
give	-14.6215
eca	-14.622
œT	-14.6331
ical	-14.6374
Any	-14.6392
▁produc	-14.6398
Hoo	-14.6401
▁trot	-14.6446
ramble	-14.6459
raw	-14.6491
▁Teach	-14.6521
pera	-14.6524
▁humbl	-14.655
ggies	-14.6553
▁limit	-14.657
tails	-14.6617
keep	-14.6619
berries	-14.662
Bug	-14.6623
Dragon	-14.6623
Park	-14.6623
Swing	-14.6623
fast	-14.6623
Ribbit	-14.6623
cut	-14.6624
Sweet	-14.6624
nail	-14.6624
Star	-14.6624
Snap	-14.6624
Jess	-14.6624
Sit	-14.6624
Zero	-14.6624
Green	-14.6624
Lucky	-14.6624
repeat	-14.6624
Ruby	-14.6624
Paul	-14.6624
Rosie	-14.6624
leopard	-14.6624
Ella	-14.6624
Lola	-14.6624
elderly	-14.6624
juice	-14.6624
match	-14.6624
two	-14.6624
cheese	-14.6624
through	-14.6624
Baby	-14.6624
Every	-14.6624
three	-14.6624
shrink	-14.6624
fire	-14.6624
goodbye	-14.6624
Sunny	-14.6624
when	-14.6624
Fred	-14.6624
Toby	-14.6624
bag	-14.6625
shake	-14.6625
Moon	-14.6625
friendly	-14.6626
chair	-14.6628
keeping	-14.6628
▁wid	-14.6629
ready	-14.6632
▁waddl	-14.6632
▁splint	-14.6632
yum	-14.6633
Lion	-14.6636
vels	-14.6637
▁glu	-14.6637
▁drea	-14.6638
▁wrinkl	-14.6638
▁poop	-14.6639
▁grunt	-14.6639
▁burp	-14.6639
umber	-14.664
pread	-14.6642
▁loa	-14.6642
▁repa	-14.6642
▁Roll	-14.6642
▁dizz	-14.6642
▁Cluck	-14.6643
aughter	-14.6643
▁Shaun	-14.6643
illa	-14.6643
autiously	-14.6643
heerful	-14.6643
▁Lea	-14.6643
▁Pee	-14.6643
▁Chea	-14.6643
▁Pru	-14.6643
▁Grand	-14.6643
▁construct	-14.6643
±	-14.6643
▁Gem	-14.6643
▁triumph	-14.6643
ooked	-14.6643
steroids	-14.6643
uscle	-14.6643
Child	-14.6643
Eleven	-14.6643
Perfect	-14.6643
Pirates	-14.6643
Square	-14.6643
Tonight	-14.6643
eluctantly	-14.6643
«	-14.6643
»	-14.6643
▁Akio	-14.6643
▁Balloon	-14.6643
▁Bulb	-14.6643
▁Carolyn	-14.6643
▁Chipmunk	-14.6643
▁Clarise	-14.6643
▁Cliff	-14.6643
▁Crazy	-14.6643
▁Flossy	-14.6643
▁Friday	-14.6643
▁Fritz	-14.6643
▁Galey	-14.6643
▁Grammy	-14.6643
▁Granma	-14.6643
▁Jaqui	-14.6643
▁Jenkins	-14.6643
▁Junior	-14.6643
▁Kana	-14.6643
▁Laurie	-14.6643
▁Marty	-14.6643
▁Murray	-14.6643
▁Nova	-14.6643
▁Pao	-14.6643
▁Ratty	-14.6643
▁Ronny	-14.6643
▁Selma	-14.6643
▁Slinky	-14.6643
▁Smiley	-14.6643
▁TinTin	-14.6643
▁Tracey	-14.6643
▁Trespassing	-14.6643
▁Woolly	-14.6643
▁Wopsy	-14.6643
▁Yawn	-14.6643
▁Ziggy	-14.6643
▁acknowledge	-14.6643
▁activated	-14.6643
▁advertisement	-14.6643
▁anxi	-14.6643
▁apologizing	-14.6643
▁arrival	-14.6643
▁assignment	-14.6643
▁belief	-14.6643
▁bellowed	-14.6643
▁bookshelves	-14.6643
▁bridle	-14.6643
▁buddies	-14.6643
▁bumblebee	-14.6643
▁cabbage	-14.6643
▁cafeteria	-14.6643
▁cardigan	-14.6643
▁certificate	-14.6643
▁chamomile	-14.6643
▁chaos	-14.6643
▁chapter	-14.6643
▁chemical	-14.6643
▁choking	-14.6643
▁chorus	-14.6643
▁clogged	-14.6643
▁cockpit	-14.6643
▁comfortably	-14.6643
▁concession	-14.6643
▁contact	-14.6643
▁convincing	-14.6643
▁crumpled	-14.6643
▁cultures	-14.6643
▁cycle	-14.6643
▁dangling	-14.6643
▁degrees	-14.6643
▁destruction	-14.6643
▁drenched	-14.6643
▁education	-14.6643
▁element	-14.6643
▁elves	-14.6643
▁enthralled	-14.6643
▁eyebrows	-14.6643
▁galaxies	-14.6643
▁gallery	-14.6643
▁glossy	-14.6643
▁haystack	-14.6643
▁headband	-14.6643
▁heartbeat	-14.6643
▁hourglass	-14.6643
▁ignition	-14.6643
▁indigo	-14.6643
▁inquisitive	-14.6643
▁inspiration	-14.6643
▁internet	-14.6643
▁jingling	-14.6643
▁jolli	-14.6643
▁kindergarten	-14.6643
▁medium	-14.6643
▁mischief	-14.6643
▁mousehole	-14.6643
▁navigate	-14.6643
▁nerve	-14.6643
▁nugget	-14.6643
▁occurred	-14.6643
▁outstretched	-14.6643
▁oval	-14.6643
▁parachute	-14.6643
▁pausing	-14.6643
▁pixie	-14.6643
▁playmates	-14.6643
▁president	-14.6643
▁quarter	-14.6643
▁reception	-14.6643
▁recovery	-14.6643
▁renewed	-14.6643
▁rhino	-14.6643
▁scoring	-14.6643
▁scruffy	-14.6643
▁sensible	-14.6643
▁specific	-14.6643
▁stegosaurus	-14.6643
▁stunning	-14.6643
▁supervis	-14.6643
▁talons	-14.6643
▁temper	-14.6643
▁thoroughly	-14.6643
▁traveller	-14.6643
▁unforgettable	-14.6643
▁untidy	-14.6643
▁vessel	-14.6643
▁vineyard	-14.6643
▁vivid	-14.6643
▁volleyball	-14.6643
▁witness	-14.6643
▁yolk	-14.6643
Rhinoceros	-14.6643
▁27	-14.6643
▁Blythe	-14.6643
▁Castle	-14.6643
▁Cloudland	-14.6643
▁Food	-14.6643
▁Genie	-14.6643
▁Halley	-14.6643
▁Jolly	-14.6643
▁Monty	-14.6643
▁Paola	-14.6643
▁Printy	-14.6643
▁Teesha	-14.6643
▁boogers	-14.6643
▁bookmark	-14.6643
▁cooperative	-14.6643
▁detach	-14.6643
▁dungeon	-14.6643
▁fortress	-14.6643
▁genius	-14.6643
▁granddad	-14.6643
▁hobby	-14.6643
▁milkshakes	-14.6643
▁plaster	-14.6643
▁pyjamas	-14.6643
▁reins	-14.6643
▁represent	-14.6643
▁transport	-14.6643
▁unhook	-14.6643
▁unroll	-14.6643
Behave	-14.6643
Eamon	-14.6643
chief	-14.6643
▁Burt	-14.6643
▁Carlos	-14.6643
▁Marcia	-14.6643
▁assistan	-14.6643
▁blister	-14.6643
▁profess	-14.6643
▁actress	-14.6643
▁mower	-14.6643
▁multipl	-14.6643
▁shiniest	-14.6643
Cricket	-14.6643
▁downward	-14.6643
▁poet	-14.6643
▁south	-14.6643
Kiss	-14.6643
▁Jellyfish	-14.6643
▁emer	-14.6643
Pull	-14.6643
▁Norman	-14.6643
▁50	-14.6643
▁Linny	-14.6643
▁cancelled	-14.6643
▁locate	-14.6643
▁failure	-14.6643
▁pods	-14.6643
▁dodgeball	-14.6643
▁moist	-14.6643
Spell	-14.6643
▁speckled	-14.6643
Van	-14.6643
▁sunhat	-14.6643
▁businessman	-14.6643
▁crumbling	-14.6643
▁yeast	-14.6643
cial	-14.6644
alia	-14.6644
▁matted	-14.6644
▁Marcie	-14.6644
Hide	-14.6644
▁nutty	-14.6644
▁Melon	-14.6644
▁chessboard	-14.6644
▁chilli	-14.6644
▁overalls	-14.6644
midst	-14.6644
cense	-14.6644
▁Mean	-14.6644
Someday	-14.6644
▁bro	-14.6644
▁Manny	-14.6644
▁dying	-14.6644
▁scarier	-14.6644
▁shimmery	-14.6644
▁Tag	-14.6644
▁longingly	-14.6644
▁shoebox	-14.6644
▁unity	-14.6644
▁Beaver	-14.6644
▁Sink	-14.6644
▁directly	-14.6644
▁Cop	-14.6645
▁Mariana	-14.6645
▁apartment	-14.6645
▁linger	-14.6645
▁lifeguard	-14.6645
œEmma	-14.6645
▁narrower	-14.6645
▁relaxation	-14.6645
▁reassuringly	-14.6645
▁crust	-14.6645
▁paintbrushes	-14.6645
Mutt	-14.6645
▁skinny	-14.6645
▁resolved	-14.6646
▁Muck	-14.6646
▁farmhouse	-14.6646
urry	-14.6646
▁armour	-14.6646
▁Beside	-14.6646
▁savoured	-14.6647
ystery	-14.6647
Feed	-14.6647
▁mumbled	-14.6647
▁pooped	-14.6648
▁froggy	-14.6648
▁Mal	-14.6649
▁Eri	-14.6649
▁honored	-14.6649
▁Hive	-14.6649
▁treatment	-14.6649
▁clucking	-14.665
Robot	-14.665
▁looser	-14.6651
▁Fold	-14.6651
▁Shoot	-14.6652
▁snored	-14.6652
▁Greeny	-14.6654
▁hull	-14.6656
▁playset	-14.6656
Writ	-14.6656
▁octopuses	-14.6657
▁carelessness	-14.6657
▁rodeo	-14.6658
lippers	-14.6661
Power	-14.6661
ntal	-14.6662
addy	-14.6665
▁wriggle	-14.6669
▁gra	-14.6673
miss	-14.6675
Dave	-14.6692
▁fift	-14.6695
Incredible	-14.6702
hop	-14.6703
Lung	-14.6709
▁ya	-14.6719
Mail	-14.6726
rrrr	-14.673
▁shin	-14.673
▁mash	-14.6768
aved	-14.6768
Caw	-14.6801
▁smoothie	-14.6857
▁contribute	-14.6967
▁stoo	-14.7008
▁Forgiv	-14.7022
dia	-14.7031
ripping	-14.7122
lapping	-14.7147
osaurus	-14.7263
ords	-14.7283
ically	-14.7299
tending	-14.7324
▁Gra	-14.7345
RE	-14.7558
inter	-14.7603
▁stru	-14.7839
trapped	-14.7876
▁attend	-14.7914
▁tri	-14.8011
▁Mic	-14.8022
▁claim	-14.8044
ARE	-14.8081
ician	-14.8099
rushes	-14.831
▁pul	-14.8383
▁rob	-14.8568
▁Balanc	-14.8578
▁ro	-14.8674
Clean	-14.8857
trained	-14.8877
fraid	-14.8883
eaten	-14.9042
Friend	-14.9049
▁ABC	-14.9069
▁obstacle	-14.907
▁paramedic	-14.907
▁afterward	-14.9073
▁chore	-14.9073
▁ingredient	-14.9073
▁whir	-14.9079
▁slo	-14.9079
Cheers	-14.9081
bbing	-14.9088
having	-14.9097
port	-14.9103
hini	-14.9106
terflies	-14.911
Wooo	-14.9112
cloth	-14.9122
earned	-14.9122
Zap	-14.9122
Whistl	-14.9123
Squeak	-14.9123
Cathy	-14.9123
Amen	-14.9123
Dinner	-14.9123
Faster	-14.9123
Rainbow	-14.9123
Rock	-14.9123
Celery	-14.9123
Raven	-14.9123
Toys	-14.9123
4	-14.9124
thump	-14.9124
Wisdom	-14.9124
Twinkle	-14.9124
whoosh	-14.9124
behaved	-14.9124
Splash	-14.9124
Feel	-14.9124
Ralph	-14.9124
Zara	-14.9124
kind	-14.9124
Jazz	-14.9124
Lena	-14.9124
Karen	-14.9124
Betty	-14.9124
quack	-14.9124
worm	-14.9124
yield	-14.9124
Coco	-14.9124
True	-14.9124
James	-14.9124
Papa	-14.9124
study	-14.9124
Alex	-14.9124
Mike	-14.9124
ignorant	-14.9124
listen	-14.9124
mix	-14.9124
clever	-14.9124
pain	-14.9124
Henry	-14.9124
dangerous	-14.9124
grandma	-14.9124
spicy	-14.9124
life	-14.9124
Birdie	-14.9124
Kim	-14.9124
Bobby	-14.9124
number	-14.9125
city	-14.9125
big	-14.9125
post	-14.9126
dependent	-14.9127
nine	-14.9127
uffing	-14.9128
▁shimmer	-14.9134
rayons	-14.9135
▁threaten	-14.9137
▁replac	-14.9137
▁savour	-14.9138
▁bleat	-14.9139
▁ruffl	-14.9139
▁terrifi	-14.9139
▁prison	-14.914
▁shrugg	-14.914
▁Georg	-14.9141
▁direct	-14.9142
bbling	-14.9142
▁Honest	-14.9142
rossed	-14.9142
▁archer	-14.9142
▁Pinch	-14.9142
▁coast	-14.9143
▁cozie	-14.9143
▁Ameli	-14.9143
▁Bri	-14.9143
Smile	-14.9143
venturing	-14.9143
▁raisin	-14.9143
welve	-14.9143
▁champ	-14.9143
▁dedicat	-14.9143
cording	-14.9143
▁Rebe	-14.9143
rightened	-14.9143
rofess	-14.9143
Qui	-14.9143
iraffe	-14.9143
irefighters	-14.9143
ologi	-14.9143
riginal	-14.9143
undred	-14.9143
ysters	-14.9143
▁Feli	-14.9143
▁electric	-14.9143
▁nostalgi	-14.9143
Night	-14.9143
▁shrub	-14.9143
)	-14.9143
Answer	-14.9143
Bamboo	-14.9143
Chicky	-14.9143
Circus	-14.9143
Excellen	-14.9143
Fuel	-14.9143
Furious	-14.9143
Ignorant	-14.9143
Oxygen	-14.9143
Penguin	-14.9143
Popcorn	-14.9143
Recycle	-14.9143
Release	-14.9143
Silvie	-14.9143
Trade	-14.9143
Zzzzz	-14.9143
abracadabra	-14.9143
cular	-14.9143
curvy	-14.9143
mployee	-14.9143
mpressive	-14.9143
predict	-14.9143
responsibilities	-14.9143
ssenger	-14.9143
sympathetic	-14.9143
ucc	-14.9143
▁"10	-14.9143
▁16	-14.9143
▁Aida	-14.9143
▁Allison	-14.9143
▁Amazed	-14.9143
▁Apples	-14.9143
▁Australia	-14.9143
▁Bingo	-14.9143
▁Cereal	-14.9143
▁Cici	-14.9143
▁Comb	-14.9143
▁Cooper	-14.9143
▁Crow	-14.9143
▁Cynthia	-14.9143
▁Decorations	-14.9143
▁Diego	-14.9143
▁Duncan	-14.9143
▁Einstein	-14.9143
▁Enter	-14.9143
▁Freckles	-14.9143
▁Geoffrey	-14.9143
▁Giggling	-14.9143
▁Gordon	-14.9143
▁Grandpapa	-14.9143
▁Happily	-14.9143
▁Hatty	-14.9143
▁Jolene	-14.9143
▁Kingdom	-14.9143
▁Kylie	-14.9143
▁Napkin	-14.9143
▁Paddington	-14.9143
▁Piece	-14.9143
▁Piggles	-14.9143
▁Place	-14.9143
▁Puzzle	-14.9143
▁Reach	-14.9143
▁Remi	-14.9143
▁Satisfied	-14.9143
▁Spirit	-14.9143
▁Stick	-14.9143
▁Strangely	-14.9143
▁Stripy	-14.9143
▁Sydney	-14.9143
▁Tester	-14.9143
▁Tube	-14.9143
▁Walk	-14.9143
▁album	-14.9143
▁amusement	-14.9143
▁anniversary	-14.9143
▁appointment	-14.9143
▁appropriate	-14.9143
▁astounded	-14.9143
▁bandana	-14.9143
▁barbeque	-14.9143
▁barbershop	-14.9143
▁basin	-14.9143
▁brilliance	-14.9143
▁bulldozer	-14.9143
▁cauldron	-14.9143
▁cavities	-14.9143
▁centipede	-14.9143
▁charging	-14.9143
▁chisel	-14.9143
▁citizens	-14.9143
▁cleanliness	-14.9143
▁cloak	-14.9143
▁contagious	-14.9143
▁cumin	-14.9143
▁death	-14.9143
▁dismay	-14.9143
▁disorganized	-14.9143
▁document	-14.9143
▁doorknob	-14.9143
▁eerie	-14.9143
▁elegant	-14.9143
▁excuse	-14.9143
▁fairytale	-14.9143
▁farmyard	-14.9143
▁fascination	-14.9143
▁firewood	-14.9143
▁flesh	-14.9143
▁flexibility	-14.9143
▁furthest	-14.9143
▁guacamole	-14.9143
▁hobbies	-14.9143
▁horsekeeper	-14.9143
▁immense	-14.9143
▁impatience	-14.9143
▁incident	-14.9143
▁intimidating	-14.9143
▁intricate	-14.9143
▁jumble	-14.9143
▁knitter	-14.9143
▁laziness	-14.9143
▁lining	-14.9143
▁magpie	-14.9143
▁medallist	-14.9143
▁miraculous	-14.9143
▁newsboy	-14.9143
▁nozzle	-14.9143
▁nutrients	-14.9143
▁odor	-14.9143
▁orphan	-14.9143
▁paddock	-14.9143
▁pastime	-14.9143
▁perseverance	-14.9143
▁persevered	-14.9143
▁personality	-14.9143
▁perspective	-14.9143
▁persuasive	-14.9143
▁pineapple	-14.9143
▁policy	-14.9143
▁possum	-14.9143
▁public	-14.9143
▁qualities	-14.9143
▁quill	-14.9143
▁radiat	-14.9143
▁realising	-14.9143
▁recognition	-14.9143
▁remarked	-14.9143
▁ritual	-14.9143
▁saliva	-14.9143
▁salute	-14.9143
▁sandstorm	-14.9143
▁savanna	-14.9143
▁sensitive	-14.9143
▁shipwreck	-14.9143
▁slingshot	-14.9143
▁smokestack	-14.9143
▁snooze	-14.9143
▁snoozing	-14.9143
▁substance	-14.9143
▁superpowers	-14.9143
▁supper	-14.9143
▁suprised	-14.9143
▁system	-14.9143
▁tournament	-14.9143
▁trans	-14.9143
▁truffle	-14.9143
▁ultimate	-14.9143
▁unattended	-14.9143
▁unbuckle	-14.9143
▁unimportant	-14.9143
▁veins	-14.9143
▁villain	-14.9143
▁wrestling	-14.9143
BOOM	-14.9143
Beautiful	-14.9143
Delicious	-14.9143
Enough	-14.9143
ROAR	-14.9143
Smart	-14.9143
Triangle	-14.9143
▁Ahead	-14.9143
▁Bobro	-14.9143
▁Harold	-14.9143
▁Hawaii	-14.9143
▁Lydia	-14.9143
▁Nicole	-14.9143
▁Phoebe	-14.9143
▁Powder	-14.9143
▁Reindeer	-14.9143
▁Zork	-14.9143
▁accus	-14.9143
▁coax	-14.9143
▁comment	-14.9143
▁communicati	-14.9143
▁distress	-14.9143
▁drool	-14.9143
▁fabulous	-14.9143
▁fulung	-14.9143
▁garlic	-14.9143
▁handcuff	-14.9143
▁koi	-14.9143
▁pyramids	-14.9143
▁racoon	-14.9143
▁squabbl	-14.9143
▁swift	-14.9143
▁unblock	-14.9143
ANG	-14.9143
▁Yet	-14.9143
▁backseat	-14.9143
▁craving	-14.9143
▁duty	-14.9143
▁propos	-14.9143
▁replant	-14.9143
▁swarm	-14.9143
▁triumphant	-14.9143
▁wobbling	-14.9143
▁clipboard	-14.9143
▁clumsiness	-14.9143
▁cooperation	-14.9143
▁racket	-14.9143
Indeed	-14.9143
▁flowerbed	-14.9143
hange	-14.9143
▁Fluffle	-14.9143
▁Laila	-14.9143
▁scour	-14.9143
▁broad	-14.9143
▁urgent	-14.9143
▁dashboard	-14.9143
▁Thalia	-14.9143
▁strive	-14.9143
Dangerous	-14.9143
▁Francis	-14.9143
▁adventuring	-14.9143
▁sunbath	-14.9143
▁Zeb	-14.9143
▁digits	-14.9143
▁Pepperoni	-14.9143
8	-15.2457
7	-15.7456
¡	-15.7477
&	-15.7477
Š	-15.7477
(	-16.7467
$	-16.7468
¦	-16.7469
X	-16.747
2	-16.7471
̃	-16.7472
”	-16.7473
1	-16.7474
Q	-16.7475
“	-16.7476
+	-16.7477
_	-16.7477
`	-16.7477
́	-16.7477
q	-16.7477
